<unk>	0
<s>	0
</s>	0
▁the	-3.31333
▁i	-3.33393
▁to	-3.49114
▁it	-3.55029
▁and	-3.66165
▁a	-3.92243
▁app	-3.9825
▁this	-4.08501
▁is	-4.20235
▁game	-4.36052
▁you	-4.37293
▁for	-4.48253
▁of	-4.50982
▁my	-4.64753
▁t	-4.65376
▁but	-4.66854
▁great	-4.75803
▁s	-4.77944
▁that	-4.84785
▁in	-4.90288
▁have	-4.93023
▁love	-4.94492
▁so	-4.95988
▁on	-4.97585
▁good	-5.08992
▁not	-5.11269
▁can	-5.12746
▁with	-5.18448
▁me	-5.31432
▁be	-5.33476
▁like	-5.37112
s	-5.3833
▁fun	-5.4349
▁all	-5.46785
▁get	-5.48018
▁just	-5.49206
▁are	-5.49764
▁very	-5.50224
▁was	-5.56475
▁use	-5.57457
▁if	-5.59299
▁time	-5.60484
▁when	-5.6289
▁your	-5.68143
▁really	-5.70591
▁as	-5.71074
▁or	-5.75909
▁more	-5.77302
▁they	-5.77879
▁one	-5.81944
▁would	-5.82
▁there	-5.83826
▁up	-5.85249
▁an	-5.86239
▁no	-5.8671
▁best	-5.91141
▁do	-5.91924
▁don	-5.93052
▁at	-5.93462
▁easy	-5.9448
▁m	-5.95077
▁out	-5.9987
▁play	-6.02805
▁what	-6.03164
▁awesome	-6.06775
ing	-6.0695
▁now	-6.07439
▁has	-6.09147
▁only	-6.10415
▁from	-6.11608
▁will	-6.21942
▁ve	-6.22242
▁much	-6.22478
▁even	-6.22993
▁work	-6.26126
▁update	-6.27517
▁amazing	-6.29185
▁make	-6.31245
▁been	-6.31674
▁because	-6.33633
▁new	-6.34498
▁way	-6.35522
▁other	-6.36475
▁please	-6.37614
▁how	-6.39192
▁money	-6.39975
▁had	-6.41557
▁some	-6.42695
▁then	-6.42879
▁every	-6.43843
▁free	-6.445
▁too	-6.46006
▁need	-6.46599
▁also	-6.47028
▁want	-6.47147
▁about	-6.49503
▁could	-6.49911
▁than	-6.50425
▁better	-6.50751
▁go	-6.52261
▁many	-6.55576
▁well	-6.5634
▁them	-6.57962
▁after	-6.58067
▁back	-6.59116
ed	-6.5948
▁ever	-6.60402
▁ads	-6.6181
▁see	-6.63258
▁am	-6.66404
▁works	-6.66689
▁nice	-6.66747
▁doesn	-6.66901
▁we	-6.68517
▁fix	-6.68896
▁still	-6.69376
▁people	-6.71003
▁playing	-6.72648
▁by	-6.73829
ly	-6.73907
▁any	-6.76586
▁which	-6.76937
▁cool	-6.77539
▁should	-6.78599
▁pay	-6.79451
▁lot	-6.80761
▁games	-6.82746
▁used	-6.82861
▁using	-6.83059
▁keep	-6.83151
▁first	-6.84473
▁add	-6.84509
▁does	-6.84547
▁day	-6.87688
▁got	-6.8795
▁think	-6.88197
▁never	-6.88754
▁over	-6.88817
▁phone	-6.9173
▁know	-6.92062
▁far	-6.93157
▁find	-6.95899
▁recommend	-6.97388
▁why	-6.97797
▁won	-7.00294
▁able	-7.01032
▁off	-7.01287
▁give	-7.0182
▁try	-7.02507
▁thing	-7.02509
▁always	-7.02714
▁needs	-7.0445
▁version	-7.06273
▁stars	-7.10101
▁their	-7.10333
▁bad	-7.10584
▁again	-7.10876
▁iphone	-7.11244
▁apps	-7.1196
▁re	-7.12574
▁without	-7.12585
▁most	-7.129
▁everything	-7.13194
▁where	-7.13676
▁things	-7.13716
▁times	-7.13887
▁pretty	-7.13987
▁few	-7.14147
▁who	-7.15257
d	-7.15631
▁little	-7.15742
▁service	-7.16208
▁into	-7.17132
▁makes	-7.17245
▁before	-7.17433
▁review	-7.18103
▁its	-7.18395
▁help	-7.18742
▁wish	-7.19223
▁buy	-7.19688
▁crashes	-7.20676
▁simple	-7.21114
▁something	-7.21785
▁let	-7.2188
▁same	-7.22192
▁thank	-7.24097
▁level	-7.24244
▁download	-7.24268
▁since	-7.24893
▁u	-7.25696
▁thanks	-7.27898
▁excellent	-7.28523
▁while	-7.2874
▁going	-7.28967
▁tried	-7.29113
▁addictive	-7.29587
▁screen	-7.30089
▁problem	-7.30238
▁hard	-7.30283
▁d	-7.30697
▁worth	-7.31612
▁getting	-7.3233
▁watch	-7.32387
▁down	-7.32591
▁keeps	-7.32655
▁made	-7.33711
▁ipad	-7.33812
▁having	-7.33869
▁through	-7.34337
y	-7.34339
▁account	-7.35045
▁super	-7.35343
▁being	-7.35595
▁long	-7.37066
▁open	-7.38234
▁different	-7.38878
▁perfect	-7.39301
▁put	-7.39314
▁did	-7.40243
▁were	-7.40698
▁didn	-7.4284
▁take	-7.43715
▁annoying	-7.44476
▁ok	-7.44578
▁say	-7.45603
▁right	-7.46584
▁nothing	-7.475
▁enjoy	-7.48494
▁support	-7.4857
▁music	-7.49553
▁start	-7.49639
▁anything	-7.4966
▁old	-7.50366
▁years	-7.5041
▁these	-7.50599
▁though	-7.50629
▁working	-7.5086
▁another	-7.51516
▁look	-7.52079
▁useful	-7.52083
▁change	-7.52566
▁days	-7.53185
▁last	-7.53356
▁trying	-7.53739
▁actually	-7.53831
▁two	-7.54446
▁star	-7.5529
▁says	-7.55499
▁option	-7.56224
▁once	-7.56517
▁ll	-7.56614
▁however	-7.56815
▁looking	-7.57046
▁real	-7.57135
▁friends	-7.57328
▁helpful	-7.60001
▁until	-7.61126
▁features	-7.62325
▁played	-7.62871
▁done	-7.6353
▁life	-7.64493
▁	-7.6481
▁levels	-7.65335
▁read	-7.65559
▁such	-7.66184
▁downloaded	-7.66558
▁found	-7.67444
▁stop	-7.67512
▁year	-7.67864
▁each	-7.68628
▁user	-7.70282
▁us	-7.71475
▁waste	-7.71484
▁seems	-7.71751
▁apple	-7.72139
▁bit	-7.72345
▁sure	-7.72451
▁come	-7.72637
▁sometimes	-7.73485
▁order	-7.73894
▁customer	-7.73954
▁takes	-7.74349
▁enough	-7.74823
▁ad	-7.74857
▁stuff	-7.75137
▁tell	-7.75432
▁making	-7.7561
▁already	-7.75754
▁issue	-7.75885
▁fantastic	-7.75938
▁said	-7.75954
▁issues	-7.75964
▁wait	-7.76451
▁video	-7.76865
▁feature	-7.78668
▁here	-7.78709
▁absolutely	-7.78748
▁feel	-7.78942
▁next	-7.79544
▁definitely	-7.79904
▁started	-7.80698
▁happy	-7.8083
▁guys	-7.81456
▁lots	-7.81466
▁store	-7.81572
▁hours	-7.81842
▁highly	-7.81967
▁our	-7.82375
▁yet	-7.82729
▁fast	-7.8291
e	-7.83137
▁show	-7.83441
▁around	-7.8509
▁paid	-7.86068
▁minutes	-7.86133
▁ios	-7.86175
▁hope	-7.86857
▁graphics	-7.87807
▁terrible	-7.8811
▁almost	-7.88248
▁own	-7.88441
▁away	-7.88529
▁card	-7.88625
▁addicting	-7.88672
▁helps	-7.88698
▁full	-7.8887
▁gets	-7.89237
▁track	-7.89254
▁job	-7.89284
▁home	-7.89472
▁frustrating	-7.89709
▁those	-7.89767
▁crashing	-7.89877
▁favorite	-7.90126
▁week	-7.90263
▁save	-7.90365
▁load	-7.91606
▁overall	-7.91856
▁maybe	-7.92175
▁coins	-7.92263
▁delete	-7.92881
▁set	-7.93018
▁must	-7.94037
▁slow	-7.94056
▁options	-7.94359
▁access	-7.94495
▁quick	-7.94784
▁he	-7.9521
▁win	-7.95533
▁daily	-7.95929
▁spend	-7.96316
▁thought	-7.9642
▁updates	-7.96583
▁cannot	-7.96872
▁point	-7.97209
▁isn	-7.97213
▁search	-7.98004
▁email	-7.99056
▁available	-7.99112
▁idea	-7.9914
▁problems	-7.99241
▁check	-7.99356
▁mobile	-7.99361
▁turn	-7.99683
▁doing	-8.00292
▁log	-8.00675
▁quality	-8.00805
▁photos	-8.00808
t	-8.01144
▁big	-8.01365
▁brilliant	-8.01425
▁items	-8.01884
▁deleted	-8.01942
▁subscription	-8.02393
▁information	-8.02712
▁hate	-8.03057
▁month	-8.03095
▁shows	-8.03209
▁experience	-8.03481
▁everyone	-8.03764
▁instead	-8.03824
▁etc	-8.04248
▁data	-8.05335
▁fine	-8.05548
▁easier	-8.05732
▁months	-8.06905
▁wrong	-8.0696
▁purchase	-8.07191
▁anyone	-8.07243
▁top	-8.07263
▁someone	-8.0799
▁videos	-8.08044
▁fixed	-8.08196
▁number	-8.08701
▁lost	-8.09078
▁pictures	-8.09371
▁haven	-8.09528
▁word	-8.09635
▁live	-8.10043
▁disappointed	-8.105
▁reason	-8.10928
▁reviews	-8.11051
▁friendly	-8.11826
▁cute	-8.11842
▁useless	-8.12042
▁send	-8.12487
▁place	-8.12564
▁longer	-8.12924
▁least	-8.12966
▁worked	-8.1366
▁upgrade	-8.13869
▁price	-8.13903
▁less	-8.14067
▁rate	-8.14309
▁especially	-8.14877
▁run	-8.15101
▁worst	-8.16159
▁kids	-8.16319
▁loved	-8.18649
▁else	-8.18775
▁updated	-8.19204
▁end	-8.19698
▁gives	-8.20292
▁online	-8.20406
▁list	-8.21101
▁accurate	-8.21117
▁horrible	-8.21153
▁button	-8.21323
▁soon	-8.21853
▁went	-8.21947
▁world	-8.22335
▁quite	-8.22607
▁bugs	-8.22653
▁challenging	-8.22792
▁wanted	-8.23184
▁players	-8.23224
▁adds	-8.23444
▁understand	-8.23523
▁wonderful	-8.23627
▁needed	-8.23744
▁second	-8.23843
▁part	-8.24056
▁developers	-8.24192
▁sound	-8.24428
▁others	-8.24883
▁whole	-8.25076
▁often	-8.2508
▁info	-8.25392
▁looks	-8.26343
▁car	-8.26449
▁system	-8.26653
▁mode	-8.26665
▁she	-8.27337
▁photo	-8.27459
▁couldn	-8.27747
▁couple	-8.28178
▁high	-8.28385
▁constantly	-8.28713
▁anymore	-8.28806
▁both	-8.28993
▁ago	-8.29046
▁family	-8.29347
▁latest	-8.29604
▁finally	-8.2966
▁website	-8.29947
▁reading	-8.29988
▁tool	-8.30051
▁wow	-8.30106
▁allow	-8.30363
▁plus	-8.30634
▁page	-8.30718
▁bought	-8.30959
▁completely	-8.31107
▁learn	-8.31147
▁story	-8.31331
▁several	-8.31345
▁amount	-8.31365
▁mind	-8.32016
▁five	-8.32235
▁x	-8.32524
▁bug	-8.32837
▁took	-8.32838
▁characters	-8.33207
▁past	-8.33258
▁team	-8.33299
▁either	-8.33514
▁tv	-8.33591
▁company	-8.34042
▁multiple	-8.34661
▁saying	-8.34892
▁move	-8.35389
▁complete	-8.35461
▁close	-8.3556
▁sign	-8.35625
▁words	-8.35696
▁news	-8.35841
▁food	-8.359
▁site	-8.36016
▁totally	-8.36283
▁ability	-8.36579
▁seem	-8.36611
▁call	-8.36794
▁waiting	-8.37221
▁stupid	-8.37403
▁application	-8.37543
▁today	-8.37929
▁text	-8.37961
▁choose	-8.38276
▁click	-8.38407
▁crash	-8.38414
▁may	-8.38542
▁poor	-8.38627
▁unles	-8.38855
▁interface	-8.39153
▁content	-8.39296
▁wifi	-8.39526
▁progress	-8.39743
▁points	-8.39938
▁paying	-8.40257
▁lose	-8.40271
▁three	-8.40417
▁fact	-8.40715
▁difficult	-8.40718
▁facebook	-8.40887
▁cost	-8.41286
▁error	-8.42048
▁interesting	-8.42859
▁convenient	-8.42875
▁person	-8.43033
▁view	-8.43332
▁create	-8.43358
▁book	-8.4366
▁otherwise	-8.43959
▁message	-8.44134
▁wouldn	-8.44406
▁weeks	-8.44444
▁boring	-8.44641
▁connect	-8.44927
▁kind	-8.45206
▁pro	-8.45573
▁added	-8.45677
▁pass	-8.45715
▁beautiful	-8.47011
▁expensive	-8.47272
▁later	-8.47329
▁sleep	-8.477
▁player	-8.47785
▁design	-8.48069
▁glitches	-8.48807
▁pop	-8.49091
▁name	-8.49754
▁small	-8.50274
▁easily	-8.50391
▁might	-8.50523
▁between	-8.50912
▁lol	-8.51321
▁business	-8.51362
▁yes	-8.51489
▁night	-8.51865
▁single	-8.5187
▁half	-8.51909
▁internet	-8.52014
▁cards	-8.52241
▁connection	-8.52248
▁rating	-8.52304
▁quickly	-8.52316
▁google	-8.5241
▁simply	-8.52544
▁hit	-8.52759
▁her	-8.53031
▁spent	-8.53076
▁stay	-8.53093
▁picture	-8.53116
▁learning	-8.53139
▁exactly	-8.53158
▁forward	-8.53617
▁device	-8.53745
▁seconds	-8.53958
▁ridiculous	-8.5431
▁goes	-8.54664
▁helped	-8.54703
▁listen	-8.55103
▁literally	-8.55453
▁recommended	-8.55531
▁e	-8.55575
▁left	-8.55608
▁myself	-8.5591
▁okay	-8.55986
▁bank	-8.56017
▁edit	-8.56076
▁continue	-8.56456
▁date	-8.56527
▁came	-8.57127
▁password	-8.57315
▁gone	-8.57675
▁premium	-8.58542
▁write	-8.58657
▁impossible	-8.5884
▁touch	-8.59612
▁songs	-8.59691
▁program	-8.5974
▁cash	-8.59852
▁ones	-8.5992
▁bring	-8.60277
▁friend	-8.60481
▁watching	-8.60775
▁extra	-8.60809
▁type	-8.60976
▁credit	-8.61528
▁probably	-8.6159
▁stuck	-8.61648
▁comes	-8.62007
▁told	-8.62829
▁within	-8.62988
gave	-8.6321
▁gameplay	-8.63268
▁login	-8.63606
▁wasn	-8.63911
▁certain	-8.64117
▁freezes	-8.64182
▁ask	-8.64711
▁seen	-8.65257
▁contact	-8.65519
▁product	-8.65705
▁funny	-8.66063
es	-8.66379
▁energy	-8.66715
▁guess	-8.67161
▁happened	-8.6728
▁g	-8.67353
▁notifications	-8.67432
▁cause	-8.67817
▁trial	-8.67857
▁location	-8.68047
▁chat	-8.68176
▁hour	-8.68488
▁missing	-8.68679
▁clear	-8.68938
▁color	-8.69269
▁room	-8.6948
▁changed	-8.69512
▁running	-8.69568
▁loading	-8.69738
▁weather	-8.69943
▁rather	-8.69946
▁scam	-8.70041
▁due	-8.70274
▁pick	-8.70399
▁decent	-8.70532
▁believe	-8.70596
▁itself	-8.70866
▁taking	-8.71242
▁deleting	-8.71282
▁buying	-8.71397
▁line	-8.716
▁mean	-8.71846
▁recently	-8.72017
▁gems	-8.72139
▁enjoyable	-8.72278
▁tracking	-8.7237
▁awful	-8.72375
▁house	-8.72761
▁huge	-8.73026
▁follow	-8.73838
▁allows	-8.74117
n	-8.74146
▁concept	-8.74236
▁figure	-8.7468
▁crap	-8.74713
▁care	-8.74879
▁camera	-8.74941
▁school	-8.75095
▁downloading	-8.75804
▁dur	-8.76041
▁cancel	-8.76119
▁enjoying	-8.76123
▁giving	-8.76268
▁sync	-8.76357
▁coming	-8.76389
▁rewards	-8.76391
▁except	-8.76669
▁together	-8.76672
▁honestly	-8.7739
▁earn	-8.78007
▁fan	-8.78051
▁charge	-8.78236
▁everyday	-8.78862
▁unlock	-8.7888
▁users	-8.78965
▁control	-8.79157
▁p	-8.79347
▁previous	-8.79578
▁usual	-8.79581
▁sounds	-8.79755
▁computer	-8.80421
▁main	-8.80808
▁addicted	-8.81028
▁glitch	-8.81076
▁challenge	-8.81249
▁speed	-8.81318
▁share	-8.81392
▁his	-8.81587
▁map	-8.81741
▁per	-8.81785
▁brain	-8.8182
▁puzzles	-8.82111
▁cant	-8.82197
▁short	-8.82208
▁puzzle	-8.82293
▁dont	-8.82516
▁future	-8.82538
▁possible	-8.82585
▁beat	-8.82673
▁plz	-8.82867
▁im	-8.83236
▁given	-8.83435
▁notes	-8.83672
▁aren	-8.83769
▁developer	-8.83792
▁match	-8.83814
▁messages	-8.83835
▁changes	-8.8398
▁handy	-8.84144
▁original	-8.84247
▁entertaining	-8.84547
▁become	-8.84594
▁purchases	-8.84649
▁code	-8.84708
▁books	-8.85156
▁editing	-8.85275
▁remove	-8.85413
▁b	-8.85564
▁purchased	-8.85595
▁sent	-8.85677
▁devices	-8.8575
▁relaxing	-8.86096
▁navigate	-8.86299
▁prices	-8.86355
▁although	-8.86456
▁refund	-8.87133
▁basic	-8.8742
▁hi	-8.87479
▁seriously	-8.87704
st	-8.87842
▁tap	-8.87881
▁charged	-8.87895
▁recent	-8.88117
▁oh	-8.88213
▁character	-8.88575
▁k	-8.88721
▁payment	-8.88888
▁saved	-8.88931
er	-8.88998
▁black	-8.89087
▁test	-8.89138
▁worse	-8.89155
▁variety	-8.89251
▁n	-8.8929
▁sort	-8.89393
▁spending	-8.89434
▁leave	-8.89563
▁whenever	-8.89649
▁baby	-8.90282
▁song	-8.9047
▁bored	-8.90638
▁actual	-8.90758
▁enjoyed	-8.90786
▁thinking	-8.90923
▁plan	-8.91205
▁post	-8.914
▁forever	-8.91461
▁truly	-8.91499
▁function	-8.92067
▁miss	-8.92345
▁kept	-8.92918
▁shopping	-8.92935
▁remember	-8.93043
▁power	-8.93139
▁response	-8.93258
▁workout	-8.93357
▁received	-8.93468
▁enter	-8.93924
▁talk	-8.94414
▁voice	-8.94548
▁settings	-8.94659
▁loving	-8.94855
▁example	-8.94953
▁process	-8.94964
▁offer	-8.95484
▁improve	-8.96101
▁improvement	-8.96106
▁saw	-8.96156
▁stopped	-8.96315
▁chance	-8.9676
▁side	-8.96772
▁him	-8.96908
▁limited	-8.96958
▁broken	-8.96961
▁switch	-8.97125
▁un	-8.97419
▁basically	-8.9764
▁item	-8.97998
▁fake	-8.98749
▁area	-8.98898
▁face	-8.9894
▁minute	-8.99369
▁personal	-8.99409
▁immediately	-8.99412
▁software	-8.99571
▁vpn	-8.99628
▁y	-8.99701
▁functionality	-8.99742
▁questions	-8.99779
▁called	-8.99898
▁controls	-8.99961
▁liked	-9.00027
▁gold	-9.00424
▁kinda	-9.00464
▁low	-9.00533
▁loads	-9.00576
▁youtube	-9.00597
▁based	-9.00636
▁adding	-9.00831
▁garbage	-9.00939
▁shame	-9.01009
▁select	-9.01078
▁disappointing	-9.01213
▁matter	-9.01433
▁intuitive	-9.01778
▁potential	-9.01803
▁audio	-9.01855
a	-9.01949
▁designed	-9.02111
▁current	-9.02215
▁auto	-9.0222
▁shop	-9.02228
▁pics	-9.02261
▁results	-9.02344
▁buggy	-9.02763
▁c	-9.031
▁deal	-9.03264
▁total	-9.03384
▁reliable	-9.03555
▁extreme	-9.03767
▁trash	-9.03902
▁link	-9.04031
▁receive	-9.04059
▁hear	-9.04217
▁rubbish	-9.04265
▁yourself	-9.04627
▁perfectly	-9.05471
▁asked	-9.05628
▁dollars	-9.0567
▁happens	-9.05723
▁sorry	-9.05841
▁delivery	-9.06194
▁slots	-9.06202
▁sad	-9.06342
▁web	-9.06583
▁omg	-9.06884
▁beginning	-9.06971
▁extremel	-9.07029
▁travel	-9.07651
▁twice	-9.0789
▁automatically	-9.08261
▁opinion	-9.08266
▁asking	-9.08276
▁space	-9.08311
▁true	-9.08363
▁f	-9.08369
▁major	-9.08609
▁higher	-9.08755
▁correct	-9.08841
▁background	-9.09297
▁keeping	-9.09355
▁finish	-9.09521
▁impressed	-9.09761
ting	-9.09844
▁talking	-9.0992
r	-9.10006
▁glad	-9.10209
▁calendar	-9.10335
▁expect	-9.10439
▁anywhere	-9.10509
▁battery	-9.1089
▁events	-9.11425
▁under	-9.11459
▁random	-9.1156
▁via	-9.11575
▁bother	-9.11736
▁excited	-9.12519
▁choice	-9.12546
▁straight	-9.12679
▁across	-9.12937
▁sense	-9.12993
▁stories	-9.13004
▁th	-9.13027
▁weight	-9.13039
▁clean	-9.13052
▁score	-9.13172
▁supposed	-9.13302
▁reset	-9.13401
▁non	-9.13675
▁filters	-9.13772
▁finding	-9.13786
▁record	-9.13796
▁answer	-9.14054
o	-9.1407
▁rid	-9.14094
▁address	-9.14097
▁r	-9.14207
▁taken	-9.14299
▁reach	-9.14432
▁mr	-9.14444
▁browser	-9.15004
▁yeah	-9.15075
▁man	-9.15299
▁details	-9.15575
▁morning	-9.15902
▁size	-9.16012
▁offers	-9.16115
▁bonus	-9.16142
▁fee	-9.163
▁workouts	-9.16332
▁cars	-9.16561
▁starting	-9.16587
▁accounts	-9.16641
▁writing	-9.16692
▁anyway	-9.17244
▁instagram	-9.17274
▁along	-9.17287
▁period	-9.17518
▁rest	-9.1769
▁faster	-9.17728
▁monthly	-9.17921
▁seeing	-9.18062
▁important	-9.18076
▁build	-9.181
▁question	-9.18213
▁lag	-9.18397
▁class	-9.18558
▁style	-9.18725
▁decided	-9.18836
▁maps	-9.18847
▁fair	-9.1921
▁city	-9.19227
▁means	-9.19335
▁w	-9.19506
▁properly	-9.19657
▁unabl	-9.19861
▁loves	-9.19884
▁crazy	-9.19943
▁entire	-9.20037
▁awsome	-9.2008
▁selection	-9.20112
▁whatever	-9.20161
▁lack	-9.20164
▁challenges	-9.20299
▁against	-9.20364
▁course	-9.20743
▁similar	-9.20766
▁kill	-9.20803
able	-9.20869
▁gotten	-9.20886
▁products	-9.20937
▁god	-9.21025
▁pc	-9.21365
▁section	-9.21374
▁showing	-9.21763
▁ur	-9.21787
▁favourite	-9.22013
▁health	-9.22082
▁o	-9.22318
▁happen	-9.22504
▁bar	-9.22709
▁customers	-9.22883
▁lets	-9.22972
▁tickets	-9.22996
▁glitchy	-9.23111
▁meet	-9.23277
▁feels	-9.23428
▁layout	-9.23517
▁ways	-9.2368
▁v	-9.23932
▁press	-9.2409
▁language	-9.24172
▁unfortunately	-9.24211
▁appreciate	-9.24224
▁step	-9.24469
▁box	-9.24611
▁scan	-9.2477
▁special	-9.24781
nna	-9.24817
▁hand	-9.24959
▁choices	-9.25035
▁ipod	-9.25056
▁specific	-9.25148
▁ui	-9.25186
▁social	-9.25257
▁son	-9.25276
▁offline	-9.25406
▁mess	-9.25983
▁connected	-9.26127
▁middle	-9.26166
▁looked	-9.2635
▁trip	-9.26548
▁compare	-9.26653
▁wants	-9.26822
al	-9.26904
▁movies	-9.26924
▁four	-9.27478
▁zero	-9.27619
▁smart	-9.27882
▁rip	-9.28004
▁l	-9.28113
▁art	-9.28313
▁forced	-9.28503
▁none	-9.29542
▁calls	-9.29647
▁title	-9.29814
▁multiplayer	-9.30239
▁dating	-9.30255
▁transfer	-9.30336
▁currently	-9.30386
▁restart	-9.31292
▁server	-9.3135
▁effects	-9.31808
▁luck	-9.32006
▁harder	-9.32089
▁diamonds	-9.3223
▁ready	-9.32351
▁confusing	-9.32574
▁opening	-9.32588
▁mini	-9.3273
▁water	-9.32768
▁white	-9.32927
▁battle	-9.3295
▁upload	-9.32983
▁flight	-9.33068
▁local	-9.33148
▁smooth	-9.33248
▁improved	-9.33284
▁paper	-9.33419
▁hey	-9.33445
▁break	-9.33567
▁ups	-9.33626
▁starts	-9.33655
▁note	-9.33911
▁numbers	-9.34159
▁movie	-9.34266
▁complaint	-9.34416
▁colors	-9.34605
est	-9.34726
▁sell	-9.35139
▁trouble	-9.35238
▁network	-9.35377
▁hopefully	-9.3546
▁suggest	-9.35611
▁heart	-9.35693
▁drive	-9.35983
▁setting	-9.36144
▁profile	-9.36217
▁emails	-9.36386
▁value	-9.36833
▁exercise	-9.37051
▁practice	-9.37121
▁ideas	-9.37247
▁epic	-9.37417
▁improvements	-9.37484
▁notification	-9.37717
te	-9.37756
▁constant	-9.37801
▁avoid	-9.38305
▁services	-9.38356
▁platform	-9.38505
▁age	-9.38565
▁recipes	-9.38698
▁forget	-9.38722
▁request	-9.38736
▁timer	-9.3881
▁professional	-9.38972
▁pls	-9.38981
▁updating	-9.39043
▁shut	-9.39604
▁hoping	-9.39705
▁crashed	-9.39774
▁english	-9.39799
▁case	-9.39856
▁solid	-9.39929
▁places	-9.40031
▁freezing	-9.40312
▁suggestion	-9.40366
▁large	-9.40424
▁child	-9.40435
▁near	-9.40453
▁round	-9.40477
▁further	-9.40564
▁cut	-9.40687
▁joke	-9.40858
▁frustrated	-9.40951
▁regular	-9.40963
▁daughter	-9.41005
▁ruined	-9.41033
▁listening	-9.41088
▁runs	-9.4114
▁stick	-9.41304
▁losing	-9.41472
▁finished	-9.41645
▁ages	-9.41953
▁children	-9.42111
▁sweet	-9.42118
▁history	-9.42242
▁fit	-9.4227
▁asap	-9.42388
▁market	-9.42757
▁gift	-9.43108
▁wanna	-9.43157
▁changing	-9.4316
▁expected	-9.43467
▁mad	-9.43547
▁removed	-9.43562
▁copy	-9.43658
▁h	-9.43752
▁balance	-9.43806
▁clothes	-9.44215
▁behind	-9.44478
▁lives	-9.44675
▁adverts	-9.44763
▁busy	-9.45185
▁saving	-9.45369
▁deals	-9.45439
▁creative	-9.45738
▁menu	-9.45775
▁pages	-9.4591
▁created	-9.45914
▁alarm	-9.46008
▁driver	-9.46051
▁ease	-9.4644
▁group	-9.46482
▁feedback	-9.46495
▁sick	-9.46754
▁moving	-9.46769
▁release	-9.46911
▁drop	-9.46985
▁spot	-9.47057
▁safe	-9.47065
▁bottom	-9.47384
▁desktop	-9.47449
▁weird	-9.47731
▁incredible	-9.47739
▁event	-9.47897
▁trust	-9.47944
▁dumb	-9.47986
▁ball	-9.48017
▁cheap	-9.48068
▁light	-9.48189
▁late	-9.48309
▁media	-9.48351
▁installed	-9.48395
▁completed	-9.48711
▁upgrades	-9.4878
▁tasks	-9.48799
▁respond	-9.48824
▁clearly	-9.49076
▁helping	-9.49099
▁noticed	-9.49306
▁report	-9.49401
▁fonts	-9.49441
▁filter	-9.49553
▁tools	-9.49737
▁piece	-9.49774
▁costs	-9.49893
▁ap	-9.49986
▁shouldn	-9.5022
▁files	-9.50266
▁unique	-9.50512
▁steps	-9.50553
▁force	-9.50562
▁lower	-9.5058
▁recording	-9.50658
▁mostly	-9.51137
▁absolute	-9.51253
▁opened	-9.51451
▁creating	-9.51664
▁return	-9.51688
▁ordered	-9.51983
▁air	-9.51996
▁locked	-9.52054
▁interested	-9.52191
▁ticket	-9.52236
▁die	-9.52293
▁block	-9.52406
▁logging	-9.52657
▁quit	-9.52675
▁file	-9.5299
▁functions	-9.53057
▁mins	-9.53079
▁moment	-9.53328
▁community	-9.53379
▁hands	-9.53381
▁provide	-9.53402
▁hasn	-9.53652
▁display	-9.53669
▁effective	-9.53703
▁older	-9.53776
▁tons	-9.5395
▁jump	-9.53969
▁bible	-9.54058
▁bunch	-9.54112
▁provides	-9.54134
▁collect	-9.54141
▁hooked	-9.54148
▁hell	-9.54287
▁allowed	-9.54558
▁plays	-9.54593
▁manage	-9.54595
▁include	-9.54685
▁tho	-9.54732
▁normal	-9.55032
▁heard	-9.55127
▁scroll	-9.55156
▁requires	-9.55295
▁hold	-9.55336
▁attempt	-9.55429
▁bill	-9.55488
▁schedule	-9.55496
▁keyboard	-9.55573
▁key	-9.55574
▁double	-9.55943
▁mom	-9.55953
▁red	-9.55996
▁addition	-9.56161
▁strategy	-9.56182
▁board	-9.5627
▁walk	-9.5641
▁incredibly	-9.56481
us	-9.56488
▁training	-9.56661
▁suggestions	-9.56717
▁nearly	-9.56912
▁sports	-9.56917
▁complaints	-9.57052
▁push	-9.57114
▁fire	-9.5745
▁install	-9.57479
▁count	-9.57491
▁logged	-9.57538
▁banking	-9.57545
▁agree	-9.57666
▁images	-9.57933
▁print	-9.58291
▁stops	-9.58312
▁building	-9.58326
▁radio	-9.58747
▁catch	-9.5875
▁frequently	-9.58814
▁advertising	-9.58911
▁alright	-9.58911
▁instructions	-9.59
▁self	-9.5906
▁security	-9.59065
▁early	-9.59082
▁cat	-9.59126
▁id	-9.59154
▁limit	-9.5949
▁episode	-9.59536
▁kid	-9.59559
▁includ	-9.59637
▁reply	-9.59953
▁eat	-9.59957
▁membership	-9.59998
▁focus	-9.6042
▁lock	-9.60551
▁particular	-9.60617
▁icon	-9.60628
▁prefer	-9.60823
▁dark	-9.61035
▁saves	-9.61086
▁above	-9.61244
▁head	-9.61265
▁series	-9.61408
▁checking	-9.61422
▁dog	-9.61641
▁fail	-9.61711
▁beyond	-9.61712
▁appear	-9.6172
▁yoga	-9.61743
▁streaming	-9.61758
▁ride	-9.61842
▁signed	-9.6202
▁moves	-9.62704
▁body	-9.6298
▁wasted	-9.62986
▁credits	-9.63126
▁reward	-9.63471
▁comments	-9.63743
▁guy	-9.63778
▁st	-9.63953
▁till	-9.63976
▁pointless	-9.63995
▁beside	-9.64285
▁girl	-9.64355
▁required	-9.64518
▁searching	-9.6464
▁purpose	-9.64745
▁closes	-9.64845
▁min	-9.64898
▁hair	-9.64952
▁compatible	-9.65094
▁task	-9.65379
ther	-9.65422
▁turns	-9.65648
▁library	-9.6575
▁itunes	-9.65792
▁winning	-9.65955
▁interest	-9.6609
▁happening	-9.66093
▁road	-9.66112
▁bingo	-9.66155
▁stress	-9.66344
▁putting	-9.66355
▁mine	-9.66381
▁accept	-9.66437
▁animals	-9.66502
▁superb	-9.66593
▁outstanding	-9.66624
▁pleased	-9.66743
▁feed	-9.67109
▁sending	-9.6713
▁join	-9.67258
▁season	-9.67328
▁format	-9.67559
▁plenty	-9.67577
i	-9.6776
▁unusable	-9.67913
▁range	-9.68205
▁efficient	-9.68308
▁wallpapers	-9.68525
▁showed	-9.68563
▁skip	-9.68653
▁matches	-9.688
▁pdf	-9.6881
▁obviously	-9.68823
▁randomly	-9.68954
▁negative	-9.68975
▁comment	-9.69042
▁mail	-9.69073
▁barely	-9.69112
▁serious	-9.69158
▁uber	-9.69439
▁alone	-9.69442
▁sooo	-9.69472
▁lovely	-9.69528
▁sit	-9.6963
▁roll	-9.69669
▁mix	-9.69717
▁advance	-9.69743
▁weekly	-9.69762
▁advertised	-9.69804
▁front	-9.69831
▁personally	-9.69847
▁ya	-9.69928
▁fab	-9.69968
▁fall	-9.70048
▁despi	-9.70311
▁pack	-9.70553
▁remote	-9.70564
▁draw	-9.70581
▁consider	-9.7063
▁driving	-9.70988
▁realistic	-9.7099
▁commercials	-9.71027
▁organized	-9.71029
▁articles	-9.7141
▁storage	-9.7151
▁pain	-9.71671
▁feeling	-9.717
▁upgraded	-9.71723
▁minor	-9.71863
▁outside	-9.71892
▁image	-9.71988
▁classic	-9.72033
▁gps	-9.72438
▁podcast	-9.72513
▁max	-9.72522
▁effort	-9.72629
▁third	-9.72914
▁slot	-9.7304
▁stream	-9.73114
▁weapons	-9.73241
▁bucks	-9.7355
▁math	-9.73636
on	-9.73706
h	-9.73892
▁mac	-9.74195
▁downloads	-9.74331
▁whe	-9.74378
▁scanner	-9.74594
▁ahead	-9.74871
▁difficulty	-9.75143
▁surprised	-9.75466
▁missed	-9.75537
▁attention	-9.75604
▁spin	-9.7563
▁eyes	-9.7566
▁failed	-9.75751
▁informative	-9.75969
▁difference	-9.76055
▁amazon	-9.76153
▁apart	-9.76158
▁luv	-9.76369
▁base	-9.7639
▁functional	-9.76425
▁thumbs	-9.76445
▁honest	-9.76519
▁goals	-9.76542
▁blue	-9.76626
▁yesterday	-9.76698
▁meh	-9.76745
p	-9.76824
▁fully	-9.76972
▁loss	-9.77197
▁lists	-9.77207
▁general	-9.77238
▁cheaper	-9.77269
▁considering	-9.77304
▁greatest	-9.77469
▁fixing	-9.77469
▁tech	-9.77474
▁tracker	-9.77624
▁town	-9.77751
▁ten	-9.77861
▁channel	-9.77908
▁episodes	-9.77983
▁fill	-9.78018
▁documents	-9.78286
▁train	-9.78291
▁onto	-9.78311
▁hello	-9.78418
▁study	-9.78518
▁shot	-9.78627
▁stats	-9.78646
▁tired	-9.78742
▁buttons	-9.78893
▁country	-9.7893
▁correctly	-9.78962
▁essential	-9.79213
▁transactions	-9.7926
▁orders	-9.79466
▁hidden	-9.79681
▁reminders	-9.79813
▁fabulous	-9.7987
▁idk	-9.79969
▁zoom	-9.80048
▁race	-9.80048
▁action	-9.80208
▁fees	-9.80355
▁laggy	-9.80437
▁manually	-9.80496
▁font	-9.8056
▁launch	-9.80614
▁unlike	-9.80632
▁written	-9.80632
▁felt	-9.80635
▁notice	-9.80664
▁tutorial	-9.80943
▁stock	-9.80949
▁relax	-9.80952
▁fault	-9.81026
▁war	-9.81104
▁wallet	-9.81131
▁party	-9.81162
▁appears	-9.81184
▁skills	-9.81252
▁office	-9.81267
▁subscribe	-9.81304
▁pull	-9.81489
▁pic	-9.81729
▁knew	-9.81785
▁categories	-9.81786
▁ended	-9.81857
▁yay	-9.81896
▁bigger	-9.8199
▁kick	-9.82071
▁complicated	-9.82176
▁deposit	-9.82216
▁swipe	-9.82315
▁parents	-9.82598
▁ruin	-9.82601
▁errors	-9.82665
▁husband	-9.82755
▁active	-9.82802
▁miles	-9.83304
▁wife	-9.83344
▁checked	-9.83369
▁mention	-9.83382
▁additional	-9.8344
▁eye	-9.83601
▁reinstall	-9.83976
▁finger	-9.8407
▁exciting	-9.84132
▁angry	-9.84291
▁shipping	-9.84333
▁setup	-9.84339
▁tom	-9.84461
▁payments	-9.84525
▁positive	-9.84546
▁ordering	-9.84564
▁beware	-9.84583
▁purchasing	-9.84731
▁bye	-9.84751
▁reader	-9.85108
▁pre	-9.85137
▁complain	-9.8519
▁versions	-9.85538
▁contacts	-9.85634
▁devs	-9.8575
▁customize	-9.85756
▁exact	-9.85817
▁vip	-9.85845
▁upon	-9.85897
▁fitness	-9.86129
▁greedy	-9.86159
▁booking	-9.86187
▁worthless	-9.86199
▁reinstalled	-9.86261
▁meditation	-9.86279
▁satisfied	-9.86335
▁uses	-9.86421
▁tiny	-9.86563
▁fight	-9.86647
▁wake	-9.86657
▁regularly	-9.86708
▁unlimited	-9.86736
▁fixes	-9.86965
▁tab	-9.87124
▁sharing	-9.87144
▁state	-9.87184
▁sonic	-9.87235
▁everytime	-9.87381
▁answers	-9.87683
▁attack	-9.87767
▁built	-9.87963
▁result	-9.88123
▁lately	-9.88126
▁killer	-9.88131
▁repetitive	-9.88167
▁contacted	-9.88195
▁rated	-9.88222
▁sky	-9.8849
▁spam	-9.88523
▁calculator	-9.8858
▁annoyed	-9.88636
▁repeat	-9.88807
▁restaurant	-9.88954
▁brings	-9.88985
▁ps	-9.89162
▁hotel	-9.89163
▁bet	-9.89267
▁normally	-9.89359
▁stand	-9.8937
▁pet	-9.89395
▁suddenly	-9.89498
▁safari	-9.8962
▁planning	-9.89621
▁alerts	-9.89801
▁colour	-9.90057
▁gain	-9.90086
▁pocket	-9.90208
▁hot	-9.90222
▁locations	-9.90324
▁areas	-9.90386
▁blank	-9.90406
▁upset	-9.90466
▁broke	-9.90473
▁direct	-9.90571
▁soo	-9.90604
▁tracks	-9.90705
▁form	-9.90787
▁types	-9.90805
▁exercises	-9.90816
▁variou	-9.9113
▁lags	-9.91189
▁soooo	-9.91346
▁currency	-9.91732
▁creators	-9.91788
▁pause	-9.91947
▁classes	-9.92197
▁goal	-9.92282
▁knowing	-9.92327
▁staff	-9.92375
▁pops	-9.9239
▁detail	-9.92409
▁packs	-9.92512
▁scores	-9.92738
▁names	-9.92757
▁likes	-9.92765
▁custom	-9.92776
▁charging	-9.92807
▁apparently	-9.92829
▁missions	-9.92979
▁girls	-9.92979
▁wonder	-9.93209
▁asks	-9.93223
▁members	-9.93255
in	-9.93307
▁accidentally	-9.93461
▁activity	-9.93674
▁dead	-9.93984
▁following	-9.94191
▁drivers	-9.94193
▁gym	-9.94262
▁member	-9.94314
▁warning	-9.94581
▁register	-9.94633
▁bc	-9.94636
▁standard	-9.94707
▁powerful	-9.94766
▁ive	-9.94841
▁bigge	-9.94922
▁grab	-9.95255
▁park	-9.95286
▁mon	-9.95293
▁vs	-9.95345
▁raise	-9.95355
▁false	-9.95872
▁throw	-9.96052
▁blast	-9.96105
▁becomes	-9.9637
▁charges	-9.96462
▁freeze	-9.9648
▁privacy	-9.96542
▁practical	-9.96546
▁pieces	-9.96597
▁toca	-9.96603
▁endless	-9.96672
▁saver	-9.96692
▁average	-9.96778
▁fairly	-9.96782
▁hints	-9.96791
▁rarely	-9.96857
▁uninstalled	-9.96862
▁unfair	-9.96876
▁require	-9.96911
▁station	-9.96989
▁usage	-9.97004
▁budget	-9.97437
▁solve	-9.97793
▁regret	-9.97885
▁source	-9.97916
▁rocks	-9.9799
▁exit	-9.97994
▁closed	-9.98066
▁phones	-9.98092
▁calling	-9.98099
▁casino	-9.98116
▁listed	-9.98196
▁hero	-9.98333
▁carry	-9.98361
▁directly	-9.9847
▁door	-9.98473
▁flights	-9.98541
▁green	-9.98563
▁distance	-9.98576
▁heroes	-9.98596
▁skill	-9.98787
▁speak	-9.98795
▁package	-9.9881
▁wanting	-9.98912
▁model	-9.98975
▁resources	-9.98981
▁fails	-9.99009
▁learned	-9.99038
▁offered	-9.99173
▁neat	-9.9926
▁women	-9.99266
▁hassle	-9.9927
▁scary	-9.99271
g	-9.99904
▁selling	-9.99908
▁unplayable	-9.99959
▁everywhere	-9.99962
▁sites	-10.0003
▁parts	-10.0006
▁junk	-10.0017
▁brand	-10.002
▁eventually	-10.0043
▁wall	-10.0045
▁earned	-10.0063
▁boss	-10.0089
m	-10.0098
▁alot	-10.0109
▁radar	-10.0135
▁separate	-10.0141
▁monitor	-10.0148
l	-10.015
▁increase	-10.0176
▁coin	-10.0181
▁private	-10.0183
▁performance	-10.0184
▁refresh	-10.0203
▁christmas	-10.0207
▁android	-10.0207
▁pizza	-10.0208
▁bus	-10.0209
▁gotta	-10.0212
▁navigation	-10.0217
▁export	-10.0217
▁mark	-10.0219
▁released	-10.0221
▁opens	-10.0228
▁nor	-10.0229
▁activities	-10.023
▁favorites	-10.0231
▁penny	-10.0254
▁fish	-10.0255
▁gun	-10.0262
▁stores	-10.0265
▁landscape	-10.0268
▁met	-10.0291
▁realize	-10.0294
▁fly	-10.0329
ies	-10.0332
▁decide	-10.0342
▁willing	-10.0342
▁technical	-10.035
▁provider	-10.0355
▁wide	-10.0361
▁chose	-10.0372
▁bluetooth	-10.0374
▁volume	-10.0375
▁sale	-10.0377
▁stickers	-10.0384
▁input	-10.0387
▁detailed	-10.0388
▁fans	-10.0402
▁quests	-10.0416
▁awhile	-10.0421
▁spanish	-10.0422
▁walking	-10.0434
▁management	-10.0447
▁claim	-10.0485
▁integration	-10.0495
▁cable	-10.0498
▁secure	-10.05
▁alert	-10.051
▁closing	-10.0519
▁loose	-10.0528
▁lucky	-10.0536
▁teams	-10.0542
▁million	-10.0547
▁explain	-10.0557
▁letters	-10.0559
▁cloud	-10.0564
▁adorable	-10.0568
▁nd	-10.0568
▁trade	-10.0593
▁leaving	-10.0593
▁instantly	-10.0602
▁bed	-10.0604
▁companies	-10.0617
▁paypal	-10.0618
▁imagine	-10.0634
▁wheel	-10.0639
▁terms	-10.064
▁kicks	-10.0651
▁memory	-10.0667
▁twitter	-10.0667
▁bills	-10.0669
▁solution	-10.0671
▁drawing	-10.0678
▁necessary	-10.0692
▁advice	-10.0693
▁rigged	-10.0717
▁laptop	-10.0719
▁description	-10.0721
▁confused	-10.0742
▁row	-10.0743
▁blocks	-10.0746
▁league	-10.0746
▁import	-10.0747
▁posts	-10.0762
▁perhaps	-10.0766
▁somehow	-10.0767
▁wasting	-10.0768
▁throughout	-10.0768
▁jobs	-10.077
▁lit	-10.0774
▁anytime	-10.0794
▁clock	-10.0795
▁default	-10.0808
▁tips	-10.0811
▁lame	-10.0817
▁watched	-10.0818
▁deserves	-10.0821
▁skin	-10.0823
▁noise	-10.0824
▁dope	-10.0837
▁included	-10.0851
▁chips	-10.0852
▁thx	-10.0867
▁project	-10.087
▁dream	-10.087
▁mission	-10.0873
▁strong	-10.0904
▁fb	-10.0906
▁bs	-10.0909
▁digital	-10.0909
▁afford	-10.0917
▁asleep	-10.0918
▁shoes	-10.0934
▁skins	-10.0966
▁solitaire	-10.0969
▁cancelled	-10.0969
▁lessons	-10.097
▁provided	-10.0989
▁calm	-10.0998
▁sales	-10.1025
▁loaded	-10.1032
▁crush	-10.1037
cuz	-10.1051
▁transaction	-10.1052
▁adjust	-10.1061
▁irritating	-10.1071
▁lines	-10.1074
▁logo	-10.1077
▁newest	-10.1083
▁previously	-10.1087
▁resource	-10.1104
▁consistently	-10.1106
▁fortnite	-10.1123
▁dragon	-10.1124
▁traveling	-10.1134
▁ton	-10.1155
▁rooms	-10.1156
▁quest	-10.1156
▁cycle	-10.1186
▁cover	-10.1195
▁bots	-10.1196
▁links	-10.1205
▁convenience	-10.1227
▁individual	-10.1256
▁students	-10.1272
▁restore	-10.1278
▁fresh	-10.1281
▁cats	-10.1287
ness	-10.1293
▁reminds	-10.1313
▁candy	-10.1316
▁gear	-10.1336
▁sitting	-10.1336
▁alternative	-10.134
▁inside	-10.134
▁sudden	-10.1348
z	-10.1357
▁rules	-10.1371
▁advertisements	-10.1375
▁exchange	-10.1378
▁servers	-10.1384
▁educational	-10.1387
▁aware	-10.139
▁depend	-10.1395
▁states	-10.1412
▁chapter	-10.142
▁collection	-10.1421
▁animation	-10.1421
▁delivered	-10.1423
▁category	-10.1439
▁final	-10.1457
▁status	-10.1465
▁magic	-10.1467
▁sister	-10.1474
▁meal	-10.1485
▁reasonable	-10.15
▁unlocked	-10.1516
ers	-10.1534
▁rare	-10.1535
▁passed	-10.1536
▁blocked	-10.1544
▁technology	-10.1547
▁brought	-10.1547
▁guide	-10.1548
▁keys	-10.1548
▁dollar	-10.1556
▁reminder	-10.1557
▁somewhere	-10.1575
▁insurance	-10.1575
▁chess	-10.1575
▁dash	-10.1577
▁tip	-10.1577
▁emailed	-10.1578
▁student	-10.1583
▁editor	-10.1584
▁uk	-10.1585
▁generally	-10.159
▁refuse	-10.1606
ally	-10.1618
▁young	-10.1627
▁piano	-10.1632
▁doesnt	-10.1632
▁birds	-10.1633
▁restaurants	-10.1634
▁mechanics	-10.1643
▁moved	-10.165
▁easiest	-10.1656
▁racing	-10.1657
▁slightly	-10.166
▁mistake	-10.1663
▁stable	-10.1667
▁connecting	-10.167
▁flash	-10.1671
▁switched	-10.1671
▁weren	-10.1681
▁dates	-10.1691
nt	-10.1692
▁guns	-10.1693
▁experienced	-10.1696
▁sold	-10.1697
▁anyways	-10.1698
▁center	-10.1704
▁upgrading	-10.1712
▁signing	-10.1737
▁development	-10.174
▁common	-10.1744
▁z	-10.1759
▁continues	-10.1773
▁netflix	-10.1794
▁insane	-10.1794
▁club	-10.1799
▁wins	-10.1819
▁window	-10.1831
▁j	-10.1842
▁guitar	-10.1848
▁trading	-10.1849
▁lie	-10.1858
▁poorly	-10.186
▁hang	-10.1862
▁rain	-10.1864
▁knows	-10.187
▁co	-10.1873
▁sooooo	-10.1884
▁mood	-10.1904
▁opportunity	-10.1905
▁pets	-10.191
▁username	-10.1915
▁machine	-10.1916
▁stays	-10.192
▁selected	-10.192
▁popular	-10.1933
▁de	-10.1936
▁coffee	-10.1943
▁communicate	-10.1953
▁master	-10.1961
▁visit	-10.1965
▁field	-10.1965
▁wallpaper	-10.1972
▁letter	-10.1993
▁worry	-10.1996
▁fav	-10.1997
▁farm	-10.1999
▁turning	-10.2005
▁deep	-10.2005
▁drink	-10.2015
▁improving	-10.2019
▁sadly	-10.2024
▁communication	-10.2029
x	-10.2032
▁dad	-10.2033
▁aspect	-10.2034
▁competitive	-10.2034
▁trips	-10.2049
▁forces	-10.2057
▁disappeared	-10.2059
▁nope	-10.206
▁scrolling	-10.2061
▁grow	-10.2061
▁spins	-10.209
▁podcasts	-10.2092
▁knowledge	-10.2103
▁ugh	-10.2104
▁popping	-10.2104
▁multi	-10.2106
▁foods	-10.2108
▁six	-10.212
▁cell	-10.214
▁direction	-10.215
▁profiles	-10.2153
▁advertisement	-10.2173
▁coloring	-10.2177
▁viewing	-10.2178
▁obvious	-10.2179
▁clothing	-10.219
▁wondering	-10.2191
▁document	-10.2208
▁disney	-10.2218
▁skype	-10.2219
▁resolved	-10.2224
▁ship	-10.2259
▁teacher	-10.2262
came	-10.2264
▁calories	-10.2268
▁scanning	-10.2277
▁eh	-10.2283
▁disappear	-10.2283
▁manager	-10.2292
▁crappy	-10.2306
▁frozen	-10.2307
▁bonuses	-10.2311
▁yo	-10.2314
▁shown	-10.2329
▁codes	-10.2334
▁numero	-10.2335
▁instant	-10.2353
▁plans	-10.236
▁unreliable	-10.2364
▁holiday	-10.2378
▁animal	-10.2378
▁clicked	-10.2388
▁prior	-10.2392
▁rd	-10.2395
▁thru	-10.2397
▁land	-10.2417
▁icloud	-10.2423
▁clunky	-10.2423
▁visual	-10.244
▁pace	-10.2444
▁battles	-10.2445
▁expecting	-10.2463
▁begin	-10.2466
▁boy	-10.2477
▁theme	-10.248
▁entertainment	-10.2483
▁doubt	-10.2487
▁rates	-10.25
▁automatic	-10.2512
▁thus	-10.2517
▁tokens	-10.2522
▁island	-10.2542
▁football	-10.2542
▁spotify	-10.2542
▁living	-10.2543
▁rely	-10.2546
▁recognize	-10.255
▁king	-10.2553
▁eating	-10.2555
▁channels	-10.2556
▁towards	-10.2557
▁themselves	-10.2572
▁programs	-10.2572
▁fantasy	-10.2572
▁receipts	-10.2586
▁uninstall	-10.2597
▁earlier	-10.2602
▁switching	-10.2623
▁reinstalling	-10.2636
▁waster	-10.2647
▁brother	-10.2678
▁ran	-10.2683
▁beginner	-10.2708
▁frequent	-10.2712
▁satisfying	-10.2714
▁misleading	-10.2725
▁bubble	-10.2739
▁careful	-10.2742
▁possibly	-10.2754
▁homework	-10.2756
▁plants	-10.2756
▁effect	-10.2769
▁disappointment	-10.2784
▁whoever	-10.2785
▁prizes	-10.2788
▁languages	-10.2821
▁followers	-10.2821
▁ghost	-10.2831
▁killed	-10.2853
▁discover	-10.2856
▁beginners	-10.2861
▁funds	-10.2862
▁stage	-10.2864
▁hilarious	-10.2877
▁traffic	-10.2877
▁reasons	-10.2877
▁doctor	-10.2893
▁drain	-10.2902
▁confirm	-10.2907
▁pvp	-10.2908
▁accessible	-10.2908
▁boxes	-10.2913
▁quicker	-10.2922
c	-10.2924
▁realized	-10.2951
▁pad	-10.2955
▁receiving	-10.297
▁tries	-10.2981
▁route	-10.2996
▁heck	-10.3024
fore	-10.304
▁beats	-10.3046
▁receipt	-10.305
▁basis	-10.3064
▁nicely	-10.3073
▁frustration	-10.3081
▁forgot	-10.3097
▁hide	-10.3098
▁occasionally	-10.3102
▁syncing	-10.3105
▁savings	-10.3108
▁supported	-10.3122
▁cameras	-10.3123
▁success	-10.3124
▁clever	-10.3127
▁known	-10.3127
▁chinese	-10.3127
▁complaining	-10.3131
▁killing	-10.3131
▁diet	-10.3156
▁genius	-10.3157
▁lvl	-10.3159
▁express	-10.3161
▁passwords	-10.3165
▁reached	-10.3169
k	-10.3178
▁meeting	-10.3179
f	-10.3184
▁wrote	-10.3191
▁gas	-10.3205
▁article	-10.3209
▁caus	-10.3238
▁rock	-10.3241
▁responsive	-10.3254
▁stations	-10.3256
▁discount	-10.3273
▁coupons	-10.3284
▁surprise	-10.3297
▁flip	-10.3307
▁nobody	-10.332
▁deliver	-10.3323
▁clash	-10.3325
it	-10.3331
▁ai	-10.3345
▁silly	-10.3352
▁hundreds	-10.3372
▁snapchat	-10.3384
▁minecraft	-10.3384
▁vehicle	-10.3403
▁parking	-10.3417
▁com	-10.3422
▁gaming	-10.3456
▁grind	-10.3456
▁con	-10.3475
▁freak	-10.3476
▁likely	-10.3476
cing	-10.3478
▁memories	-10.3482
▁pok	-10.3504
▁meaning	-10.3508
▁designs	-10.3514
▁present	-10.3524
▁clicking	-10.3542
▁simplicity	-10.3548
▁prompt	-10.3568
▁legit	-10.358
▁depth	-10.3598
▁target	-10.3601
▁dr	-10.3608
▁birthday	-10.3635
▁pure	-10.3653
▁journey	-10.3668
▁flaws	-10.3673
▁joy	-10.3679
ion	-10.3679
▁entry	-10.3681
▁anxiety	-10.3714
▁loop	-10.3723
▁browse	-10.3738
▁whil	-10.3744
▁ends	-10.3748
▁btw	-10.3749
▁related	-10.3751
▁street	-10.3758
▁american	-10.3769
▁interactive	-10.3782
▁typical	-10.3783
▁gem	-10.3796
▁session	-10.3804
▁projects	-10.3809
▁wise	-10.3813
▁dice	-10.3817
▁liking	-10.3817
▁ppl	-10.3821
▁tower	-10.3842
▁debit	-10.385
▁owner	-10.3855
▁explore	-10.386
▁ratings	-10.3871
▁massive	-10.3873
▁virtual	-10.3873
▁flow	-10.3877
▁paste	-10.3878
▁pregnancy	-10.3884
▁obsessed	-10.3884
▁mid	-10.3887
▁mrs	-10.3887
▁promotion	-10.3907
▁moon	-10.3909
▁submit	-10.3918
▁canada	-10.3919
▁arrived	-10.3926
▁blah	-10.3933
▁investment	-10.3941
▁incorrect	-10.3941
▁motivated	-10.3954
▁cast	-10.3957
▁situation	-10.3976
▁consistent	-10.3976
▁hungry	-10.3987
▁meant	-10.3995
▁cooking	-10.4003
▁chest	-10.4009
▁slowly	-10.4013
▁verify	-10.4022
▁lacking	-10.4026
▁placed	-10.4035
▁research	-10.4039
▁ring	-10.4049
▁shape	-10.4052
▁dis	-10.4053
▁shoot	-10.4055
▁impressive	-10.4056
ary	-10.4077
▁filled	-10.4081
less	-10.4092
▁artist	-10.41
▁posted	-10.4114
▁aso	-10.412
▁thousands	-10.4144
▁organize	-10.4149
▁banned	-10.4162
▁haha	-10.4163
▁rich	-10.4165
▁xs	-10.4165
▁kills	-10.4171
▁healthy	-10.4184
▁partner	-10.4186
▁animations	-10.4186
▁monster	-10.4186
▁journal	-10.4187
▁monsters	-10.4207
▁laugh	-10.4221
▁widget	-10.4221
▁sets	-10.4224
▁peace	-10.4229
▁public	-10.4231
▁picked	-10.4233
▁smaller	-10.4241
▁sucks	-10.4242
▁complet	-10.4249
▁advantage	-10.4257
▁opponent	-10.4257
▁playlist	-10.4262
▁pleasant	-10.4268
▁modes	-10.4277
▁appstore	-10.4277
▁fat	-10.428
▁recipe	-10.4293
▁dear	-10.4295
▁grocery	-10.4303
▁men	-10.4304
▁yr	-10.4308
▁reports	-10.4312
▁counter	-10.4317
▁entered	-10.4325
▁smoothly	-10.4336
▁dictionary	-10.4339
▁attempts	-10.4341
▁colours	-10.4345
an	-10.4346
▁benefit	-10.4365
▁translate	-10.4373
▁consuming	-10.4375
▁screens	-10.4417
▁beautifully	-10.4418
▁amazingly	-10.4421
▁mentioned	-10.4434
▁creator	-10.4437
▁cookie	-10.4437
▁inappropriate	-10.4446
▁earth	-10.4447
▁everybody	-10.4447
▁groups	-10.4459
▁typing	-10.4483
▁entertained	-10.4485
▁modern	-10.4508
▁college	-10.4509
▁policy	-10.4519
▁tapping	-10.4521
▁restarted	-10.4523
▁exist	-10.4528
▁discovered	-10.4534
▁financial	-10.4544
▁patience	-10.4556
▁square	-10.456
ity	-10.456
▁os	-10.457
▁reporting	-10.4577
▁rush	-10.4579
▁emoji	-10.4584
▁enable	-10.4585
en	-10.4587
▁vocabulary	-10.4592
▁becoming	-10.4593
▁passes	-10.4605
▁remind	-10.4606
▁maker	-10.4626
▁engaging	-10.4629
▁wi	-10.4639
▁pair	-10.4659
▁tablet	-10.466
▁grateful	-10.4666
▁fighting	-10.4669
▁arrive	-10.4686
▁ha	-10.4693
▁suppose	-10.4695
▁french	-10.4703
▁accuracy	-10.4703
▁scared	-10.4707
▁hd	-10.4723
▁cross	-10.4727
▁commercial	-10.4732
▁testing	-10.4737
▁gen	-10.4738
▁boo	-10.4739
▁prevent	-10.474
▁act	-10.4742
▁subscriptions	-10.4747
▁routine	-10.4758
▁competition	-10.4769
▁strange	-10.4776
▁instance	-10.4777
▁utter	-10.4778
▁client	-10.4781
▁position	-10.4784
ty	-10.4801
▁encourage	-10.4806
▁ww	-10.4813
▁loud	-10.4814
▁zombies	-10.4821
▁trick	-10.483
▁logs	-10.4832
▁advanced	-10.4832
▁da	-10.4836
▁port	-10.4843
▁resolution	-10.4843
▁meals	-10.4846
▁elsewhere	-10.4852
▁dragons	-10.4853
▁dislike	-10.4853
▁larger	-10.4856
▁serve	-10.4868
▁fashion	-10.4876
w	-10.4878
▁expenses	-10.4881
▁entering	-10.4881
▁downside	-10.4883
▁habits	-10.4887
▁buildings	-10.489
▁dogs	-10.4891
ve	-10.4894
▁uninstalling	-10.4918
▁customization	-10.492
elling	-10.492
▁golf	-10.4927
▁nowhere	-10.4929
▁folks	-10.4932
▁drag	-10.4952
▁conversation	-10.4957
ic	-10.4971
▁bars	-10.4986
▁managed	-10.4987
▁directions	-10.4988
▁slime	-10.4997
▁parent	-10.4998
▁compete	-10.4998
▁lights	-10.5016
▁fi	-10.5017
▁aside	-10.5018
▁tiles	-10.502
▁shots	-10.5021
▁gifts	-10.5022
▁pin	-10.5024
▁plain	-10.5029
▁damage	-10.5034
▁clients	-10.5038
▁console	-10.5043
▁units	-10.5043
▁deserve	-10.5066
▁pool	-10.5077
▁dropbox	-10.5081
▁below	-10.5083
▁cart	-10.5095
▁corner	-10.5098
▁storyline	-10.5113
▁death	-10.5113
▁reported	-10.5117
▁wear	-10.5126
▁identify	-10.5158
▁pricing	-10.5158
▁pathetic	-10.5158
▁poker	-10.5161
▁amazed	-10.5162
▁handle	-10.5165
▁boost	-10.5168
▁delay	-10.5178
▁breaks	-10.5184
▁reload	-10.5194
▁styles	-10.5215
▁wild	-10.5221
▁reference	-10.5221
▁method	-10.5226
▁causes	-10.5228
▁zombie	-10.523
▁regardless	-10.5237
▁creepy	-10.5237
▁suggested	-10.5239
▁proper	-10.5265
▁flaw	-10.5272
▁portrait	-10.5276
▁repeatedly	-10.5282
▁pm	-10.5296
▁stated	-10.5297
▁boom	-10.5298
▁graphic	-10.5308
▁frame	-10.531
▁somewhat	-10.5315
▁signal	-10.5341
▁readings	-10.5347
▁rpg	-10.5348
▁usa	-10.5349
▁restarting	-10.5351
▁complex	-10.5354
▁xbox	-10.5355
▁prime	-10.5357
▁recorded	-10.5367
▁initial	-10.5387
▁bag	-10.5387
▁sub	-10.5389
▁bird	-10.5394
▁timing	-10.5394
▁ultimate	-10.5395
▁earning	-10.5397
▁ping	-10.5413
▁airport	-10.5428
▁limits	-10.5432
▁knock	-10.5434
▁interact	-10.5436
▁la	-10.5437
▁thoughts	-10.544
▁table	-10.5441
▁understanding	-10.5458
▁motivation	-10.547
▁terrific	-10.5474
▁advert	-10.5475
▁thoroughly	-10.5479
▁glitching	-10.548
▁promised	-10.5482
▁priced	-10.5483
is	-10.5487
▁prize	-10.551
▁tough	-10.5512
▁dev	-10.5527
▁meter	-10.5539
▁whatsapp	-10.5554
▁chromecast	-10.5554
▁dropped	-10.5555
▁anybody	-10.5555
se	-10.5557
▁invest	-10.556
▁studying	-10.5562
▁watermark	-10.5567
▁records	-10.5581
▁global	-10.5582
▁length	-10.5586
▁unnecessary	-10.5595
▁inaccurate	-10.5595
▁vegas	-10.5596
▁chart	-10.5598
▁entirely	-10.5638
le	-10.5648
▁resolve	-10.5668
▁database	-10.567
▁messaging	-10.5676
▁recordings	-10.5686
▁fell	-10.5688
▁requests	-10.5702
▁hint	-10.5715
▁sim	-10.5729
▁yea	-10.5737
▁amounts	-10.5743
▁dude	-10.5758
▁china	-10.5759
▁fox	-10.5761
▁gr	-10.5774
▁odd	-10.5785
man	-10.5791
▁regard	-10.5796
▁charm	-10.582
▁steal	-10.5825
or	-10.5828
▁faces	-10.5835
▁adventure	-10.5839
▁fitbit	-10.5841
▁matching	-10.5853
▁drops	-10.5854
▁bomb	-10.5866
▁objects	-10.5873
▁equipment	-10.5874
▁clue	-10.5879
▁samsung	-10.5883
▁rude	-10.5883
▁originally	-10.5905
▁advise	-10.5922
▁sleeping	-10.5942
▁windows	-10.5952
▁hrs	-10.5959
▁rent	-10.596
▁backgrounds	-10.5962
▁crossword	-10.5963
▁collecting	-10.5989
▁forth	-10.5989
▁promise	-10.5998
▁appreciated	-10.5998
▁gacha	-10.6001
▁diamond	-10.6006
▁texts	-10.6006
▁grade	-10.6009
▁redeem	-10.6009
▁customizable	-10.6009
▁charts	-10.6014
▁sims	-10.6016
▁gg	-10.6027
▁bike	-10.6031
▁existing	-10.6035
▁treat	-10.6037
▁album	-10.6048
▁mario	-10.6049
▁cheat	-10.605
▁entries	-10.6051
▁tree	-10.6059
▁wind	-10.6067
▁rank	-10.6094
▁chrome	-10.6094
▁lazy	-10.6094
▁resume	-10.6094
▁browsing	-10.6095
▁sessions	-10.6109
▁ground	-10.6124
▁sorted	-10.6124
▁replace	-10.6133
▁verification	-10.6137
▁diary	-10.6137
▁plane	-10.614
▁edits	-10.6149
▁ea	-10.6157
▁toddler	-10.6177
▁visually	-10.6196
▁plant	-10.6208
ability	-10.6216
▁secret	-10.622
▁straightforward	-10.6223
▁income	-10.6223
▁unsubscribe	-10.6229
▁focused	-10.6259
▁majority	-10.6267
▁truth	-10.6269
▁expand	-10.6271
▁lesson	-10.6272
▁truck	-10.6287
▁booked	-10.6295
▁ending	-10.6302
▁froze	-10.6307
▁zone	-10.6309
▁heavy	-10.6309
▁teach	-10.6312
▁shared	-10.6315
▁tricky	-10.6317
▁installing	-10.633
▁capture	-10.6342
v	-10.6357
▁spell	-10.6371
▁houses	-10.6399
▁tomorrow	-10.6402
▁tabs	-10.6409
▁op	-10.6412
▁subscribed	-10.6415
▁mo	-10.6418
▁maintain	-10.6428
▁manual	-10.643
▁ugly	-10.6442
oooooooooooooooo	-10.646
▁tested	-10.6472
▁replay	-10.6472
▁posting	-10.6475
▁leaves	-10.6483
▁airline	-10.6484
▁seller	-10.6489
▁fingers	-10.6499
▁chests	-10.6499
▁screw	-10.6509
▁patterns	-10.6513
▁appointments	-10.6525
▁scale	-10.6526
▁choosing	-10.653
▁empty	-10.653
▁genuine	-10.653
▁storm	-10.653
▁greed	-10.653
▁rounds	-10.6555
▁aspects	-10.6557
▁decision	-10.6573
▁expectations	-10.6582
▁scratch	-10.6587
▁spelling	-10.6595
▁reboot	-10.6617
▁collage	-10.6621
▁unbelievable	-10.6621
▁woman	-10.6628
▁unit	-10.6649
▁tag	-10.665
▁coverage	-10.6665
▁involved	-10.6668
▁tend	-10.6671
▁develop	-10.6673
▁developed	-10.6677
▁banks	-10.6678
▁cons	-10.6694
▁blood	-10.6703
▁locks	-10.6706
▁jam	-10.6707
▁adults	-10.6708
▁reservation	-10.6709
▁removing	-10.671
▁countries	-10.671
▁human	-10.6754
▁cold	-10.6755
▁tinder	-10.6755
▁confirmation	-10.6756
▁affordable	-10.6757
▁surprisingly	-10.6759
▁ignore	-10.6761
▁snap	-10.6765
▁calming	-10.6795
▁minimum	-10.6801
▁continuously	-10.6806
▁moments	-10.6807
▁frames	-10.6808
▁agent	-10.6808
▁strongly	-10.6821
▁engine	-10.6822
▁memes	-10.6835
▁adobe	-10.6847
▁enemies	-10.6847
▁unacceptable	-10.6893
▁relative	-10.6893
▁gay	-10.6902
▁pen	-10.6905
▁connects	-10.6905
▁cheating	-10.6917
▁demand	-10.6917
▁selecting	-10.6919
▁covers	-10.692
▁balanced	-10.6921
▁international	-10.6928
▁websites	-10.6929
▁invite	-10.6931
▁brill	-10.6934
▁lagging	-10.694
▁weekend	-10.6941
▁paint	-10.6942
▁staying	-10.6947
▁emojis	-10.695
▁convert	-10.6967
▁shooting	-10.6969
▁net	-10.6979
▁awesomeness	-10.698
▁speaking	-10.6984
▁motion	-10.6985
▁struggle	-10.6986
▁informed	-10.6991
▁balls	-10.7001
▁slower	-10.7007
▁coach	-10.7008
▁payed	-10.7013
way	-10.7015
▁mistakes	-10.7017
▁shift	-10.7024
▁weak	-10.703
▁pandora	-10.7032
▁combat	-10.7033
▁prepared	-10.704
▁reopen	-10.7066
▁flying	-10.7076
▁inventory	-10.7079
▁comfortable	-10.708
▁disgusting	-10.708
▁campaign	-10.708
▁translation	-10.708
coming	-10.7088
▁playlists	-10.7093
▁cook	-10.7102
▁respect	-10.7108
▁protect	-10.7113
▁pokemon	-10.7126
▁wherever	-10.7128
▁highlight	-10.7131
▁sharp	-10.717
▁split	-10.7173
▁exceptional	-10.7174
▁vacation	-10.7174
▁indeed	-10.7174
▁native	-10.7174
▁seven	-10.7176
▁hole	-10.7182
▁hadn	-10.7184
▁backup	-10.7193
u	-10.7202
▁successful	-10.721
▁craft	-10.7211
▁adult	-10.7224
▁annoy	-10.7233
▁xx	-10.7244
▁notch	-10.7246
▁approach	-10.7257
▁bright	-10.7266
▁organization	-10.7269
▁caught	-10.7269
▁ripoff	-10.7269
▁installs	-10.727
▁reduce	-10.7274
▁circle	-10.7278
▁kinds	-10.7281
▁beta	-10.7288
▁tank	-10.7295
▁summer	-10.7311
▁hook	-10.7314
▁tedious	-10.7317
▁folder	-10.732
▁anime	-10.733
▁ships	-10.7345
▁wars	-10.7358
▁cam	-10.7363
▁explanation	-10.7368
▁movement	-10.737
▁headphones	-10.7372
▁bro	-10.7383
▁micro	-10.7394
▁texting	-10.7407
▁managing	-10.7415
re	-10.7417
▁speaker	-10.742
▁introduced	-10.7421
▁initially	-10.7428
▁newer	-10.7429
▁themes	-10.7437
▁favor	-10.7439
▁provid	-10.7449
▁risk	-10.7456
▁admit	-10.7463
▁soccer	-10.7463
▁requested	-10.7464
▁continually	-10.7464
▁progression	-10.7468
▁icons	-10.7471
▁picking	-10.7488
▁marketing	-10.7497
▁insta	-10.7505
▁property	-10.7512
▁phenomenal	-10.7512
▁coupon	-10.7515
▁intro	-10.7517
▁flawlessly	-10.7523
rs	-10.7526
▁screwed	-10.7526
▁destroy	-10.7542
▁changer	-10.7542
▁slide	-10.7551
▁flawless	-10.7551
▁titles	-10.756
▁stunning	-10.7561
▁playback	-10.757
▁minimal	-10.7575
▁sections	-10.7577
▁linked	-10.7583
▁ideal	-10.7591
▁habit	-10.7595
▁clans	-10.7599
▁pros	-10.7609
▁microsoft	-10.7611
▁unavailable	-10.7611
▁sec	-10.7642
▁clips	-10.7646
▁slick	-10.7654
▁fancy	-10.7661
▁rides	-10.7664
▁crack	-10.7683
▁searches	-10.769
me	-10.769
▁hopes	-10.7691
▁chapters	-10.7696
▁term	-10.7698
▁taxi	-10.7702
▁furniture	-10.7706
▁tests	-10.771
▁soothing	-10.771
▁makeup	-10.7724
▁passing	-10.7735
▁brush	-10.7737
▁teaching	-10.774
▁gb	-10.7753
▁reddit	-10.7756
ment	-10.7758
▁defense	-10.7761
▁applications	-10.7761
▁japanese	-10.7761
▁airplay	-10.7761
▁cities	-10.7761
▁horoscope	-10.7765
▁spare	-10.7769
▁material	-10.7776
▁courses	-10.7777
▁chances	-10.7787
▁welcome	-10.7804
▁patient	-10.7805
ce	-10.7805
▁responded	-10.7808
▁transfers	-10.7809
▁tin	-10.781
▁enemy	-10.7811
▁cents	-10.7839
▁responses	-10.7848
▁unhappy	-10.7862
▁ninja	-10.7862
▁sport	-10.7869
▁hackers	-10.7887
▁billing	-10.7887
▁combine	-10.7891
▁loyal	-10.7911
▁recognition	-10.7913
▁mystery	-10.7913
▁pencil	-10.7917
▁kindle	-10.7921
▁ben	-10.7931
▁counting	-10.7937
▁painful	-10.7937
▁hits	-10.7939
▁def	-10.794
▁tier	-10.7948
▁idle	-10.7948
▁tanks	-10.7962
▁australia	-10.7962
▁comprehensive	-10.7964
▁connectivity	-10.7964
▁boyfriend	-10.7964
▁breeze	-10.7964
▁police	-10.7964
▁fingertips	-10.7966
▁relationship	-10.797
▁appointment	-10.7971
▁ex	-10.7983
▁canceled	-10.8012
▁tune	-10.8013
▁spider	-10.8019
▁reality	-10.8023
▁hearts	-10.8025
▁defeat	-10.8032
▁forecast	-10.8037
▁occasions	-10.8041
▁blocking	-10.8044
▁ux	-10.8049
▁listing	-10.8059
▁extras	-10.8063
▁comparison	-10.8068
▁optimization	-10.8068
▁intended	-10.8073
▁portion	-10.8074
▁deck	-10.8076
▁iphones	-10.8085
▁hub	-10.8096
▁offering	-10.8111
▁claims	-10.8113
▁maintenance	-10.812
▁shadow	-10.812
▁barcode	-10.812
▁af	-10.8123
▁troops	-10.8126
▁benefits	-10.8134
▁reviewers	-10.816
▁displayed	-10.8166
▁flat	-10.8167
▁fishing	-10.8168
▁arena	-10.8172
▁roblox	-10.8172
▁gorgeous	-10.8172
▁pleasure	-10.8172
▁graph	-10.8179
▁scammers	-10.8179
▁comics	-10.82
▁worlds	-10.8205
▁platforms	-10.8206
▁bbc	-10.821
▁se	-10.8217
▁among	-10.8228
▁sun	-10.8232
▁screenshot	-10.8236
▁prove	-10.8256
▁physical	-10.8266
▁refreshing	-10.8274
▁flexible	-10.8278
▁camp	-10.8279
▁mother	-10.8289
▁pounds	-10.8289
b	-10.8308
▁fed	-10.8313
▁died	-10.8314
▁mental	-10.8319
▁appropriate	-10.8319
▁unstable	-10.8331
▁spinning	-10.8331
▁abilities	-10.8331
▁experiencing	-10.8331
▁horse	-10.8337
▁tone	-10.8356
▁checks	-10.8365
▁lead	-10.8368
▁dance	-10.8372
▁quotes	-10.8375
▁folders	-10.8382
▁packages	-10.8384
▁struggling	-10.8384
▁programming	-10.8385
▁basics	-10.8388
▁adore	-10.8391
▁genre	-10.8392
▁replaced	-10.8397
▁opponents	-10.84
▁docs	-10.841
▁stages	-10.841
▁cuts	-10.8422
▁yearly	-10.843
▁algorithm	-10.8438
▁dinner	-10.8438
▁symptoms	-10.8442
▁failure	-10.8446
▁weapon	-10.8446
▁lovers	-10.8455
▁redownload	-10.8461
▁elements	-10.8466
▁suit	-10.8474
▁seamless	-10.8481
▁scenes	-10.8483
▁increasing	-10.8492
▁nonsense	-10.8492
▁inconvenient	-10.8493
▁ripped	-10.8493
ry	-10.8498
▁replacement	-10.8499
▁buyer	-10.8499
▁returned	-10.85
▁studio	-10.8503
▁chase	-10.8516
▁periods	-10.8519
▁growing	-10.8535
▁fraud	-10.8545
▁obtain	-10.8546
▁neither	-10.8546
▁happier	-10.8546
ation	-10.8548
▁grey	-10.8549
▁bait	-10.855
th	-10.8552
▁pressure	-10.8552
▁playable	-10.8554
▁disabled	-10.8555
▁edge	-10.8558
▁zoo	-10.8564
ily	-10.859
▁extend	-10.8594
▁lil	-10.8597
▁strength	-10.86
▁sudoku	-10.8601
▁whatsoever	-10.8601
▁london	-10.8601
▁pregnant	-10.8601
▁lyft	-10.8601
▁proof	-10.8603
▁nightmare	-10.8608
▁scene	-10.861
▁rental	-10.8611
▁shooter	-10.8611
▁meditations	-10.8615
▁answered	-10.8618
▁remain	-10.8643
▁pricey	-10.8651
▁cellular	-10.8656
▁addiction	-10.8656
▁checkout	-10.8658
▁conversations	-10.8667
▁artists	-10.8673
▁greatly	-10.868
▁natural	-10.87
▁creativity	-10.8711
▁integrate	-10.8721
▁quote	-10.8734
▁egg	-10.8739
▁seat	-10.8744
▁tax	-10.8761
▁smile	-10.8761
▁valuable	-10.8767
▁babies	-10.8767
▁theory	-10.8771
▁lies	-10.8775
▁preview	-10.8777
▁primar	-10.8783
ng	-10.8806
▁achieve	-10.8814
▁betting	-10.8835
▁rolls	-10.886
▁somebody	-10.888
▁desk	-10.888
▁witch	-10.8881
▁lay	-10.8889
▁winner	-10.889
▁runner	-10.889
▁trainer	-10.8894
▁em	-10.8901
▁wine	-10.8908
▁guessing	-10.8914
▁loses	-10.892
▁according	-10.8926
▁baseball	-10.8935
▁lady	-10.8936
▁hack	-10.8965
▁hr	-10.8968
▁renew	-10.8971
▁surely	-10.8972
▁band	-10.8979
▁sam	-10.8988
▁coolest	-10.899
▁nike	-10.8994
▁hacked	-10.9005
▁solved	-10.9013
▁rep	-10.9022
▁disappears	-10.9024
▁makers	-10.9029
▁monitoring	-10.9046
▁stopping	-10.905
▁backwards	-10.9063
▁closer	-10.9065
▁payouts	-10.9074
▁sizes	-10.9084
▁ice	-10.9085
▁machines	-10.9085
▁quiet	-10.9095
▁occasional	-10.9096
▁dress	-10.9102
▁execution	-10.9107
▁survival	-10.9107
▁trail	-10.9118
▁bot	-10.9127
▁menus	-10.9131
▁annual	-10.9153
▁verizon	-10.9165
▁santa	-10.9165
▁yep	-10.9167
▁pink	-10.9169
▁younger	-10.9173
▁simulator	-10.9175
▁tournament	-10.9177
▁virtually	-10.9183
▁sooner	-10.9185
▁label	-10.9188
▁covered	-10.9193
▁holidays	-10.9197
▁badly	-10.9198
▁stole	-10.9221
▁pending	-10.9223
▁overpriced	-10.9223
▁tbh	-10.9226
▁encountered	-10.923
na	-10.9245
▁rewarding	-10.9246
▁sat	-10.9247
▁conditions	-10.925
▁mile	-10.9265
▁america	-10.9279
▁hospital	-10.9281
▁preferred	-10.9282
▁mb	-10.9283
▁prints	-10.929
▁cake	-10.9295
▁addressed	-10.93
▁cup	-10.9303
▁crop	-10.9305
▁voices	-10.932
▁electronic	-10.9338
▁tennis	-10.934
▁scanned	-10.934
▁protection	-10.934
▁kidding	-10.9341
▁guaranteed	-10.9346
▁odds	-10.9346
▁hurt	-10.9349
▁pixel	-10.9352
▁banner	-10.9353
▁cookies	-10.9356
▁employees	-10.9363
▁usable	-10.9365
▁designer	-10.937
▁burn	-10.9373
▁grand	-10.9374
▁nights	-10.9379
▁uploading	-10.9392
▁describe	-10.9398
▁medical	-10.94
▁skeptic	-10.9401
▁shocking	-10.9405
▁yahoo	-10.9405
▁kicking	-10.9408
▁female	-10.9412
ually	-10.9423
▁fax	-10.9435
▁accepted	-10.9446
▁tournaments	-10.9446
▁garden	-10.9449
▁accurately	-10.945
▁inconsistent	-10.9459
▁nintendo	-10.9459
▁opportunities	-10.9459
▁assistance	-10.9459
▁experiences	-10.9462
▁object	-10.9463
▁vote	-10.9467
▁sega	-10.947
▁cheers	-10.9472
▁clan	-10.9481
▁routes	-10.9487
▁casual	-10.9507
▁disable	-10.9518
▁relevant	-10.9519
▁nature	-10.9519
as	-10.952
▁plug	-10.9522
▁escape	-10.9524
▁thankful	-10.9531
▁boys	-10.9533
▁companion	-10.9533
▁recommendation	-10.9543
▁locate	-10.9544
▁hangs	-10.9557
▁film	-10.9563
▁outfits	-10.9563
▁excessive	-10.9579
▁comcast	-10.9579
▁stressful	-10.9579
▁planes	-10.9581
▁enjoyment	-10.9586
▁successfully	-10.9593
▁controller	-10.9593
▁twist	-10.9593
▁expense	-10.9594
▁lover	-10.96
▁holding	-10.9621
▁listings	-10.9634
▁nutrition	-10.9639
▁lifesaver	-10.9639
▁apply	-10.9651
▁operate	-10.9659
▁sometime	-10.9665
▁duplicate	-10.9666
▁visuals	-10.9672
▁investing	-10.9673
▁merge	-10.9694
▁soooooo	-10.9699
▁advertise	-10.9706
▁friday	-10.9708
▁poop	-10.971
▁promo	-10.9712
▁increased	-10.9721
▁inbox	-10.9742
▁inspiration	-10.9761
▁sensitive	-10.9762
▁shield	-10.9762
▁lord	-10.9763
▁ingredients	-10.977
▁bear	-10.9774
▁opt	-10.9777
▁tonight	-10.9781
▁outfit	-10.9781
▁planet	-10.9783
▁requirements	-10.9787
▁xd	-10.9787
▁timely	-10.9794
▁ban	-10.9796
▁q	-10.9806
▁joined	-10.981
▁materials	-10.9818
▁gmail	-10.9819
▁happily	-10.9823
▁safety	-10.9825
▁decisions	-10.9825
▁rotate	-10.983
▁paced	-10.9846
▁fuel	-10.9863
▁reflect	-10.9872
▁figur	-10.988
▁verse	-10.9883
▁superior	-10.9885
▁physics	-10.9886
▁intake	-10.9889
▁sincerely	-10.989
▁smh	-10.9891
ta	-10.9917
▁thinks	-10.9918
▁ranking	-10.9935
▁summary	-10.9948
▁opposite	-10.9948
▁wicked	-10.9948
▁began	-10.9952
▁sight	-10.9963
▁generation	-10.9965
▁releases	-10.997
▁vehicles	-10.9973
▁discounts	-10.9974
▁bridge	-10.9977
ne	-10.9991
▁simpler	-11.0003
▁girlfriend	-11.0011
▁angela	-11.0011
▁colorful	-11.0012
▁siri	-11.0013
▁importantly	-11.0016
▁temple	-11.0016
▁legendary	-11.0016
▁standing	-11.0032
▁templates	-11.0035
▁timers	-11.004
▁pushing	-11.0041
▁connections	-11.0051
▁steam	-11.0052
ie	-11.0056
▁bummer	-11.0074
▁capability	-11.0074
▁hbo	-11.0074
▁uploaded	-11.0082
▁destination	-11.0092
▁interaction	-11.0092
▁delayed	-11.0095
▁feeding	-11.0096
▁bothered	-11.0097
▁teachers	-11.0111
▁refunded	-11.012
▁foreign	-11.0136
▁timed	-11.0144
▁accident	-11.0152
▁loot	-11.0163
▁views	-11.0166
▁boarding	-11.0169
▁critical	-11.019
▁activate	-11.0194
▁tetris	-11.0202
▁garage	-11.0202
▁laid	-11.0202
▁artwork	-11.0204
▁undo	-11.0207
▁chill	-11.0207
▁pressed	-11.0215
▁seamlessly	-11.0215
▁gripe	-11.0218
▁wedding	-11.022
▁glance	-11.022
▁floor	-11.022
▁favourites	-11.0221
▁subscriber	-11.0225
▁lunch	-11.0226
▁dump	-11.0231
▁bless	-11.0234
▁dealing	-11.0236
▁south	-11.0244
▁waist	-11.0246
▁feeds	-11.025
▁official	-11.0255
▁stone	-11.0258
▁clip	-11.0264
▁unresponsive	-11.0267
▁leveling	-11.0268
▁infuriating	-11.0268
▁photography	-11.0268
▁north	-11.0275
▁xp	-11.0275
▁concerned	-11.0278
▁airplane	-11.0285
▁proceed	-11.0285
▁familiar	-11.0288
▁actions	-11.0293
▁optional	-11.0301
▁printer	-11.0301
▁sex	-11.0311
▁gate	-11.0325
▁boot	-11.0326
▁capabilities	-11.0332
▁ebay	-11.0332
▁bravo	-11.0332
▁dropping	-11.0332
▁travelling	-11.0332
▁affect	-11.0337
▁regards	-11.0338
▁subway	-11.0347
▁fruit	-11.0348
▁countdown	-11.035
▁percentage	-11.0351
▁races	-11.0358
▁refill	-11.0361
▁dose	-11.0366
▁ma	-11.0374
▁ca	-11.0378
▁topics	-11.0378
▁gamer	-11.0389
▁beast	-11.0391
▁bull	-11.0392
▁walmart	-11.0397
▁silver	-11.0397
▁flexibility	-11.0397
▁fingerprint	-11.0397
▁albums	-11.0402
▁attacks	-11.0412
▁wood	-11.0415
▁beach	-11.042
▁eg	-11.0433
▁robot	-11.0438
▁grinding	-11.0442
▁mega	-11.0443
▁matched	-11.0448
▁marvel	-11.0462
▁intrusive	-11.0463
▁invaluable	-11.0463
▁damn	-11.0468
▁hire	-11.0471
▁featured	-11.0475
▁signs	-11.0476
ia	-11.0478
▁stinks	-11.048
▁profit	-11.0482
▁presented	-11.0489
▁owners	-11.0495
▁predict	-11.0512
▁patch	-11.0516
▁significant	-11.0518
▁analysis	-11.0529
▁compatibility	-11.0529
▁chosen	-11.0535
▁armor	-11.0546
▁environment	-11.0548
▁falling	-11.0549
▁alliance	-11.0549
▁calorie	-11.055
▁edition	-11.0552
▁singing	-11.0555
▁alexa	-11.0556
apped	-11.0567
▁excel	-11.0575
▁planner	-11.0596
▁worried	-11.0596
▁sources	-11.0597
▁freedom	-11.0599
▁repeating	-11.0601
▁notified	-11.0604
▁implemented	-11.0605
▁subject	-11.0617
▁cc	-11.0622
▁facts	-11.0641
▁eats	-11.0656
▁keyword	-11.0665
▁redo	-11.0671
▁solo	-11.0672
▁alarms	-11.0688
▁worthy	-11.0689
▁reconnect	-11.0715
▁supporting	-11.0716
▁spawn	-11.0717
▁quiz	-11.0721
▁blind	-11.0728
▁trivia	-11.0729
▁cumbersome	-11.073
▁beauty	-11.073
▁stolen	-11.0733
▁withdraw	-11.0734
▁evernote	-11.0734
▁expired	-11.0736
▁swiping	-11.0736
▁produce	-11.0743
▁birth	-11.0744
▁chats	-11.0754
▁repair	-11.0761
▁continued	-11.0764
▁sh	-11.077
▁redesign	-11.0772
▁acting	-11.0776
▁interrupt	-11.0785
▁leads	-11.0788
▁grate	-11.0796
▁temperature	-11.0798
▁korean	-11.0799
▁dots	-11.0802
ive	-11.0807
▁ill	-11.0807
▁exists	-11.0816
▁destroyed	-11.0816
▁host	-11.0823
▁fortune	-11.0828
▁scheduled	-11.0836
▁awkward	-11.0855
▁designers	-11.0857
▁versatile	-11.0867
▁starbucks	-11.0867
▁kudos	-11.0868
▁july	-11.087
▁heaps	-11.0873
▁clues	-11.0873
▁systems	-11.0877
▁returns	-11.088
▁reduced	-11.0882
▁vids	-11.0892
▁ig	-11.0897
▁repeated	-11.0899
▁ringtones	-11.0902
ssed	-11.0907
▁registered	-11.0907
▁cases	-11.0908
▁recommendations	-11.0921
▁mediocre	-11.0936
▁scammed	-11.0936
▁cheats	-11.0947
▁perfection	-11.0947
▁tight	-11.0953
▁prescription	-11.0959
▁selections	-11.0962
▁path	-11.0964
▁reads	-11.0977
▁drift	-11.0983
▁solving	-11.1005
▁aid	-11.1006
▁sellers	-11.101
▁meme	-11.1012
▁ipads	-11.1019
▁blog	-11.1028
▁combination	-11.1029
▁rough	-11.1042
▁returning	-11.1044
▁feelings	-11.1051
▁enhance	-11.1075
▁models	-11.1075
▁promising	-11.1075
▁mirror	-11.1076
▁buddy	-11.1078
▁schedules	-11.108
▁ace	-11.1088
▁hotels	-11.1089
▁shops	-11.1092
▁achievements	-11.1098
▁listened	-11.1101
▁tweaks	-11.1102
▁failing	-11.1104
▁woke	-11.111
▁shutt	-11.1113
▁verses	-11.1127
nable	-11.1142
▁slight	-11.1143
▁percent	-11.1145
▁doodle	-11.1151
▁lyrics	-11.1156
▁erase	-11.1157
▁chatting	-11.1158
▁zip	-11.1159
▁metronome	-11.1167
▁flawed	-11.1169
▁medium	-11.117
▁avail	-11.117
▁aim	-11.1174
llowing	-11.1175
▁bets	-11.1179
▁recover	-11.1197
▁processing	-11.1198
▁trees	-11.1209
▁speech	-11.1214
▁universe	-11.1216
▁roku	-11.1217
▁science	-11.1217
▁manner	-11.1217
▁submitted	-11.1223
▁logos	-11.1227
▁canadian	-11.1241
▁guild	-11.1242
▁al	-11.1242
▁castle	-11.1243
ts	-11.125
tv	-11.1273
▁millions	-11.1278
▁clicks	-11.1281
▁vary	-11.1292
▁lbs	-11.1302
▁fits	-11.1317
▁plot	-11.1318
ter	-11.1321
ll	-11.1325
▁concerns	-11.1332
▁national	-11.135
▁mint	-11.1359
▁poppe	-11.1359
▁motivating	-11.136
▁matchmaking	-11.136
▁messenger	-11.136
▁sunday	-11.136
▁transferred	-11.136
▁airlines	-11.1362
▁speeds	-11.1365
▁holy	-11.1367
▁keeper	-11.1375
▁streak	-11.1386
▁hundred	-11.1387
▁snow	-11.1388
▁wave	-11.14
▁robots	-11.141
▁heat	-11.1412
▁unfortunate	-11.1421
▁recognise	-11.1431
▁august	-11.1432
▁confidence	-11.1432
▁registration	-11.1432
▁seek	-11.1433
▁nearby	-11.1433
▁muscle	-11.1433
▁revenue	-11.1433
▁xr	-11.1434
▁boards	-11.1436
▁pleasing	-11.1441
▁routines	-11.1449
▁pattern	-11.146
▁pickup	-11.146
▁avatar	-11.146
▁disconnects	-11.1467
▁developing	-11.1468
▁plague	-11.1478
▁eggs	-11.1492
▁generous	-11.1493
land	-11.1494
▁goodbye	-11.1502
▁prepare	-11.1504
▁guidance	-11.1505
▁proud	-11.1506
▁outlook	-11.1507
▁photoshop	-11.151
▁oops	-11.1511
▁displays	-11.1515
▁nest	-11.1519
▁sequel	-11.153
▁army	-11.1531
▁permission	-11.1533
▁allah	-11.1561
▁drawings	-11.1568
▁concern	-11.1571
▁promote	-11.1577
▁attractive	-11.1579
▁granny	-11.1579
▁kitchen	-11.1579
▁disaster	-11.158
▁palm	-11.1582
▁stronger	-11.1583
▁lifetime	-11.1583
▁distracting	-11.1587
▁sucked	-11.1587
▁warned	-11.159
▁boosts	-11.1592
▁assume	-11.1593
▁bottle	-11.1598
▁imo	-11.1602
▁refused	-11.1604
▁contract	-11.1607
▁stocks	-11.1607
▁sheet	-11.1608
▁explained	-11.1618
▁ba	-11.1629
▁calculate	-11.1646
vpn	-11.1646
▁speakers	-11.165
▁magical	-11.1652
▁keto	-11.1653
▁outrageous	-11.1653
▁assist	-11.1653
▁dying	-11.1655
▁notify	-11.1657
▁difficulties	-11.166
▁disconnected	-11.1663
▁basketball	-11.1674
▁shapes	-11.1676
▁yellow	-11.1677
▁perspective	-11.168
▁unicorn	-11.1681
▁excuse	-11.1681
▁shoe	-11.1683
▁teache	-11.1687
ton	-11.1692
▁mum	-11.1697
▁clicker	-11.1703
▁wireless	-11.1716
▁industry	-11.1727
▁lifestyle	-11.1728
▁executed	-11.173
▁usability	-11.1736
▁praise	-11.174
▁edited	-11.1754
▁pronunciation	-11.1756
▁jumps	-11.1756
▁invoice	-11.1758
▁bump	-11.1766
▁hill	-11.1798
▁walls	-11.18
▁yup	-11.1802
▁mahjong	-11.1803
▁availability	-11.1803
▁verified	-11.1804
▁refer	-11.1807
▁blow	-11.1809
▁filling	-11.1818
▁stack	-11.1821
▁preferences	-11.1832
▁insight	-11.1833
▁billion	-11.1834
▁towers	-11.1834
▁appeared	-11.1865
▁seats	-11.1865
▁providers	-11.1873
▁encouraging	-11.1878
▁criticism	-11.1878
▁generic	-11.1878
▁childhood	-11.1879
▁occupied	-11.1879
▁reservations	-11.1879
▁cancelling	-11.188
▁blown	-11.1881
▁pressing	-11.1882
▁generate	-11.1884
▁estimate	-11.1895
▁appealing	-11.1899
uring	-11.1899
▁cares	-11.1904
▁magazine	-11.1909
▁bell	-11.1918
▁wonderfully	-11.1939
▁detect	-11.1941
▁pray	-11.1954
▁budgeting	-11.1954
▁political	-11.1957
▁role	-11.1958
▁royal	-11.198
▁um	-11.1983
▁tuner	-11.1985
▁guest	-11.1986
▁tour	-11.1997
▁sea	-11.2013
▁confident	-11.202
▁mileage	-11.2032
▁april	-11.2032
▁monday	-11.2032
▁tags	-11.2033
▁ff	-11.2034
▁consideration	-11.2034
▁bosses	-11.2038
▁buffering	-11.2042
sh	-11.2068
▁evening	-11.2081
▁par	-11.2102
▁german	-11.2102
ish	-11.2104
▁obnoxious	-11.2109
▁hurry	-11.2109
▁proxy	-11.2109
▁espn	-11.211
▁collages	-11.2111
▁minus	-11.2113
▁coding	-11.2119
▁addresses	-11.2124
▁ignored	-11.2129
▁york	-11.2129
▁core	-11.2131
▁structure	-11.2134
▁invested	-11.2134
▁spots	-11.2137
▁rope	-11.2141
▁dozen	-11.2143
ant	-11.2144
▁mindless	-11.2145
▁dot	-11.2165
▁considered	-11.2168
ee	-11.217
▁descriptions	-11.2174
▁grid	-11.2176
▁guarantee	-11.2179
▁swear	-11.2185
▁temp	-11.2185
▁spectacular	-11.2187
▁properties	-11.2187
▁dangerous	-11.2187
▁gender	-11.219
▁logic	-11.2193
▁gladly	-11.2201
▁iron	-11.221
▁pitch	-11.2211
age	-11.2222
▁bubbles	-11.2222
▁printing	-11.2223
▁greater	-11.2234
▁responding	-11.2235
▁recorder	-11.2236
▁xfinity	-11.2267
▁traditional	-11.2267
▁summon	-11.2275
▁spread	-11.2276
▁bags	-11.2278
▁kit	-11.2284
▁guided	-11.2293
▁businesses	-11.2293
▁arcade	-11.2294
▁engineer	-11.2295
▁fave	-11.2299
▁shirt	-11.23
▁instruction	-11.2301
▁finances	-11.2304
▁measure	-11.2323
▁infinite	-11.2331
▁elegant	-11.2334
▁scrabble	-11.2345
▁visible	-11.2346
▁exploring	-11.2346
▁reasonably	-11.2348
ot	-11.2348
▁inconvenience	-11.2349
▁command	-11.2355
▁combined	-11.2362
▁curve	-11.237
▁km	-11.2371
▁situations	-11.2371
▁factor	-11.2376
▁creation	-11.2379
▁scooter	-11.238
▁draft	-11.2381
▁prayer	-11.2381
▁wth	-11.2389
▁drinks	-11.2394
▁lite	-11.2405
▁purposes	-11.241
▁invalid	-11.2415
▁sorting	-11.2418
▁rage	-11.2423
▁garmin	-11.2425
▁jesus	-11.2425
▁unknown	-11.2425
▁tuning	-11.2426
▁downhill	-11.2426
▁hence	-11.2426
▁productive	-11.2428
▁desired	-11.2431
▁permanently	-11.2432
▁significantly	-11.2439
▁determine	-11.2445
▁crystals	-11.2453
▁commute	-11.2457
▁blur	-11.2459
▁doctors	-11.2464
▁ga	-11.2464
ted	-11.2465
▁jumping	-11.2468
▁perform	-11.2468
▁remotely	-11.2477
▁freakin	-11.2481
▁rewind	-11.2483
▁cruise	-11.2487
▁duolingo	-11.2506
▁cancellation	-11.2508
▁royale	-11.2511
▁sorts	-11.2511
▁tricks	-11.2512
▁sum	-11.2517
▁described	-11.2519
ra	-11.252
▁inc	-11.2537
▁chicken	-11.2541
▁sneaker	-11.2541
▁boosters	-11.2543
▁startup	-11.2544
▁forums	-11.2544
▁recommending	-11.255
▁decline	-11.2564
▁trap	-11.257
os	-11.2573
▁wack	-11.2581
▁synced	-11.2581
▁brands	-11.2585
▁horror	-11.2587
▁microphone	-11.2587
▁applied	-11.2588
ized	-11.259
▁goodness	-11.2612
▁nba	-11.2613
ley	-11.262
▁delivers	-11.2621
▁portfolio	-11.2622
▁bitcoin	-11.2623
▁builder	-11.2634
▁sides	-11.2639
▁effectively	-11.265
▁immediate	-11.2658
▁beer	-11.2661
▁til	-11.2666
▁grandson	-11.2669
▁scheduling	-11.267
▁carplay	-11.267
▁crosswords	-11.2676
▁peer	-11.268
▁picks	-11.2686
▁router	-11.2688
▁estate	-11.2691
▁cent	-11.2695
▁taste	-11.2696
up	-11.2706
ch	-11.2713
▁blame	-11.2724
▁wak	-11.273
▁functioning	-11.2738
▁iap	-11.2744
▁delicious	-11.2752
▁families	-11.2752
▁dialogue	-11.2752
▁occurred	-11.2752
▁mountain	-11.2752
▁wizard	-11.2752
▁famous	-11.2752
▁elite	-11.2753
▁blurry	-11.2754
▁golden	-11.2755
▁mute	-11.2762
▁cbs	-11.2766
out	-11.2776
▁united	-11.2776
▁en	-11.2789
▁headache	-11.2789
▁dj	-11.28
▁pump	-11.2802
▁noice	-11.2818
▁walked	-11.2824
▁reviewing	-11.2829
▁tunes	-11.2829
▁possibilities	-11.2835
▁rhythm	-11.2835
▁robux	-11.2835
▁credentials	-11.2836
▁vast	-11.2837
▁east	-11.2839
▁eight	-11.2839
▁optimized	-11.284
▁taught	-11.2844
▁homes	-11.2849
▁scans	-11.2851
▁starter	-11.2857
▁suffer	-11.2859
▁canceling	-11.2862
▁giant	-11.2872
▁heads	-11.2874
▁named	-11.2886
▁career	-11.2889
▁valid	-11.2893
▁glitched	-11.2905
▁grammar	-11.2908
▁marks	-11.2913
▁education	-11.2915
▁beneficial	-11.2919
▁versus	-11.2919
▁arlo	-11.2919
▁plac	-11.2925
▁approved	-11.2925
app	-11.2932
▁integrated	-11.2934
▁ar	-11.2956
▁meetings	-11.2957
▁surveys	-11.2961
▁shuffle	-11.2968
▁arrow	-11.297
▁awake	-11.2988
▁electric	-11.3004
▁afraid	-11.3004
▁productivity	-11.3004
▁bombard	-11.3005
▁held	-11.3008
▁wiped	-11.3009
▁reps	-11.3011
▁strategic	-11.3015
▁ruining	-11.3016
▁john	-11.3021
▁enabled	-11.3023
▁restrictions	-11.3025
▁drives	-11.3026
▁fastest	-11.3033
▁hop	-11.3033
▁restored	-11.3035
▁tutorials	-11.3037
▁buck	-11.3039
▁tube	-11.3041
▁readers	-11.3044
▁alive	-11.3047
▁stealing	-11.305
▁bundle	-11.306
▁seasons	-11.3067
▁mate	-11.308
▁abroad	-11.309
▁purple	-11.309
▁relaxation	-11.3091
▁worthwhile	-11.3092
▁lying	-11.3094
▁inspiring	-11.3096
▁gud	-11.3097
ist	-11.31
▁male	-11.3109
▁thumb	-11.3122
▁chime	-11.3129
▁expert	-11.313
ling	-11.3133
▁toggle	-11.3144
▁cycles	-11.3154
▁stones	-11.3158
▁equal	-11.3165
▁graphs	-11.3165
▁thorough	-11.3165
▁olds	-11.3166
▁highlights	-11.3173
▁intense	-11.3176
▁mlb	-11.3176
▁attached	-11.3184
▁repeats	-11.3194
▁legends	-11.3203
▁adjustments	-11.3205
▁accumulate	-11.3209
to	-11.321
▁element	-11.3215
▁hunter	-11.3218
▁existent	-11.3222
▁loan	-11.3225
▁pot	-11.323
▁comic	-11.3247
▁lo	-11.3251
▁aggravating	-11.3263
▁altogether	-11.3263
▁unwanted	-11.3263
▁curious	-11.3263
▁ginger	-11.3263
▁pharmacy	-11.3263
▁scoring	-11.3263
▁evil	-11.3263
▁europe	-11.3263
▁dull	-11.3264
▁threw	-11.3264
▁outdated	-11.3264
▁specially	-11.3264
▁hardware	-11.3266
▁throws	-11.3267
▁automat	-11.3268
▁shocked	-11.3269
▁fps	-11.3272
▁lowest	-11.3272
▁smoke	-11.3293
▁revert	-11.3298
▁leading	-11.3299
▁shark	-11.3306
▁dig	-11.3309
▁exception	-11.331
▁mechanic	-11.3311
ge	-11.3318
▁march	-11.3326
▁circles	-11.3346
▁jack	-11.3349
▁forgotten	-11.3351
▁harry	-11.3351
▁counts	-11.3352
▁cheapest	-11.3356
▁bloody	-11.3364
▁stored	-11.3366
▁perks	-11.3367
▁audiobooks	-11.3367
▁erased	-11.3367
▁phrases	-11.3373
▁typed	-11.3385
▁thousand	-11.3393
▁production	-11.3396
▁treasure	-11.3413
▁arm	-11.3414
▁winnings	-11.3419
▁implement	-11.3426
▁cropp	-11.3435
▁hockey	-11.3439
▁orientation	-11.3439
▁teeth	-11.3439
▁dreadful	-11.344
▁dvr	-11.344
▁orange	-11.3441
▁chewy	-11.3441
▁grindr	-11.3442
▁motivational	-11.3448
▁eliminate	-11.345
▁bowling	-11.3451
▁bt	-11.3453
freaking	-11.346
▁bi	-11.3462
▁blowing	-11.3465
▁scheme	-11.3482
▁gifs	-11.3482
▁consumer	-11.3483
▁apartment	-11.3483
▁layers	-11.3484
▁sauce	-11.349
▁breath	-11.3493
▁warn	-11.3493
▁resets	-11.3495
▁viewed	-11.3498
▁dime	-11.35
▁loos	-11.3506
▁stressed	-11.3509
▁anti	-11.3514
▁billed	-11.3517
▁voodoo	-11.3528
▁extensive	-11.3528
▁nfl	-11.3529
▁walks	-11.3533
▁polished	-11.3538
▁rolling	-11.3555
▁bits	-11.3562
▁idiot	-11.3563
▁echo	-11.3566
▁translator	-11.357
▁dare	-11.357
▁neighborhood	-11.3571
▁presentation	-11.3572
▁ringtone	-11.3573
▁sneakers	-11.358
▁crypto	-11.358
▁warm	-11.3583
▁printed	-11.3604
▁hunt	-11.3606
▁collected	-11.3608
ably	-11.3616
▁intriguing	-11.3618
▁arabic	-11.3618
▁stat	-11.3618
▁priority	-11.3619
▁ect	-11.362
▁macbook	-11.362
id	-11.3621
▁ensure	-11.3633
▁swap	-11.3645
▁sooooooo	-11.3658
▁strike	-11.3663
▁demo	-11.3669
▁surf	-11.3687
▁islands	-11.3687
▁shell	-11.3688
▁leg	-11.3689
▁pushed	-11.3696
▁flag	-11.37
▁ehh	-11.3708
▁rainbow	-11.3709
▁delta	-11.3709
▁impact	-11.3709
▁shady	-11.3709
▁replies	-11.3709
▁modify	-11.371
▁overwhelming	-11.371
▁bitmoji	-11.3711
▁suitable	-11.3711
▁stability	-11.3711
▁lucki	-11.3729
▁beating	-11.3731
▁layer	-11.3735
▁soul	-11.3736
▁costly	-11.374
▁stretch	-11.3746
▁kingdom	-11.3755
▁statement	-11.3756
▁classics	-11.3765
▁falls	-11.377
▁disappearing	-11.3779
▁dreams	-11.378
▁calendars	-11.3786
▁bang	-11.3787
▁solutions	-11.3787
▁workers	-11.3798
▁maximum	-11.3801
▁overseas	-11.3801
▁dedicated	-11.3802
▁west	-11.3804
▁bat	-11.3805
▁dave	-11.3807
▁afterpay	-11.3807
▁trigger	-11.3835
▁retrieve	-11.3835
▁license	-11.3838
▁spark	-11.3843
▁occasion	-11.3846
▁oppos	-11.3848
▁transition	-11.3849
▁grant	-11.3858
▁relaxed	-11.3863
ar	-11.3868
▁remembering	-11.3875
▁pile	-11.3876
▁precise	-11.3882
▁continuous	-11.3883
▁hmm	-11.3883
nd	-11.3884
▁horses	-11.3884
▁iv	-11.3891
▁fluid	-11.3894
▁hulu	-11.3894
▁unbalanced	-11.3894
▁ashamed	-11.3894
▁absurd	-11.3895
▁glasses	-11.3895
▁flipping	-11.3906
ous	-11.3911
▁comparing	-11.3911
by	-11.3911
▁pl	-11.3922
▁competitors	-11.3922
▁yrs	-11.3923
▁qr	-11.3929
▁recharge	-11.3933
▁squad	-11.3941
▁idiots	-11.3941
▁interval	-11.3941
▁survey	-11.3941
▁centre	-11.3955
▁interests	-11.3965
▁boots	-11.3965
▁render	-11.3972
▁blackjack	-11.3987
▁sleek	-11.3987
▁indispensable	-11.3987
▁growth	-11.3988
▁shipped	-11.3988
▁decorate	-11.3992
▁grown	-11.3993
▁quitting	-11.3994
▁gamers	-11.3997
▁creatures	-11.4002
▁fear	-11.4012
▁cleaning	-11.4015
▁prompts	-11.4023
▁huh	-11.4026
▁balances	-11.403
▁bookmark	-11.4036
▁law	-11.4048
ey	-11.4055
▁gif	-11.4064
▁blessing	-11.4067
▁accomplish	-11.4068
ga	-11.407
▁tones	-11.407
▁pays	-11.407
▁nicer	-11.4077
▁halloween	-11.4081
▁groceries	-11.4081
▁quran	-11.4081
▁silent	-11.4081
▁breakfast	-11.4081
▁boca	-11.4081
▁suspend	-11.4082
▁lightning	-11.4082
▁amusing	-11.4085
▁thrilled	-11.4086
▁mass	-11.4087
▁nail	-11.4087
▁hoped	-11.4088
▁biased	-11.4092
▁hat	-11.41
▁introduce	-11.4117
▁designing	-11.4118
▁enjoys	-11.4124
▁hacker	-11.4135
▁tracked	-11.4135
▁blows	-11.4138
▁led	-11.415
▁hopeless	-11.4153
▁cream	-11.4162
▁restarts	-11.4169
▁realise	-11.4171
▁representative	-11.4177
▁accessories	-11.4177
▁suspect	-11.4177
▁copied	-11.4177
▁replied	-11.4178
▁navigating	-11.4178
▁wolf	-11.4179
▁feet	-11.4186
▁disconnect	-11.4189
▁tactics	-11.419
▁nine	-11.4201
▁flowers	-11.4205
▁cab	-11.4211
▁splash	-11.4222
▁finance	-11.4227
▁reviewer	-11.4227
▁marked	-11.4229
▁talks	-11.4233
line	-11.4242
▁pdfs	-11.4243
▁alternatives	-11.4246
▁planets	-11.4248
▁heavi	-11.4249
▁downgrade	-11.4265
▁shifts	-11.4266
▁todo	-11.4268
▁releasing	-11.4273
▁backgammon	-11.4273
▁fifa	-11.4273
▁fourth	-11.4275
▁buyers	-11.4286
▁condition	-11.4287
▁bass	-11.4289
▁yeet	-11.4291
▁finds	-11.4293
▁department	-11.4323
▁jackpot	-11.4324
▁contest	-11.4324
▁spreadsheet	-11.4324
▁gray	-11.4327
▁weed	-11.4328
▁magazines	-11.4331
▁invoices	-11.4332
▁lighting	-11.4332
▁skips	-11.4341
▁values	-11.4342
▁packed	-11.4346
▁apparent	-11.4359
▁touching	-11.4361
ful	-11.4367
▁couples	-11.4369
▁renewal	-11.4372
▁vision	-11.4372
▁associated	-11.4372
▁moms	-11.4376
▁hp	-11.4377
▁parties	-11.4381
▁supposedly	-11.4383
▁shorter	-11.4389
▁bully	-11.4391
▁matters	-11.4398
▁ranked	-11.44
▁sole	-11.4401
▁deposits	-11.4405
sides	-11.4407
▁brilliantly	-11.4416
▁redirect	-11.4418
▁computers	-11.4421
▁definition	-11.4422
▁sentence	-11.4423
▁newspaper	-11.4423
▁maths	-11.4425
▁launched	-11.4436
at	-11.4449
▁smash	-11.4457
the	-11.4458
▁reverse	-11.4464
▁horrendous	-11.4468
▁strava	-11.4468
▁june	-11.4469
▁pinch	-11.4472
▁spirit	-11.4476
▁gd	-11.4477
▁measurements	-11.4485
▁delays	-11.4485
▁appeal	-11.4485
▁tweaking	-11.4486
▁stands	-11.4487
▁ab	-11.449
▁musical	-11.4493
▁contain	-11.4501
▁ear	-11.4506
▁hue	-11.4509
▁individually	-11.451
▁forum	-11.4514
▁additionally	-11.4526
▁owned	-11.4527
▁trusted	-11.4561
▁innovative	-11.4567
▁removal	-11.4567
▁thermostat	-11.4567
▁loyalty	-11.4567
▁teen	-11.4576
▁refunds	-11.4576
▁taps	-11.4577
▁riding	-11.4593
▁trump	-11.4618
▁climb	-11.4618
▁colouring	-11.4624
▁rise	-11.4627
▁goood	-11.4643
▁legal	-11.4646
▁trucks	-11.4662
▁couch	-11.4665
▁seeming	-11.4666
▁sandbox	-11.4667
▁poshmark	-11.4667
▁excitement	-11.4667
▁unrealistic	-11.4667
▁darn	-11.4668
▁caption	-11.4668
▁thankyou	-11.4669
▁taxes	-11.467
▁customise	-11.4672
▁avid	-11.4673
▁meds	-11.4677
▁realised	-11.4677
▁tables	-11.4686
▁bread	-11.4712
▁hats	-11.4715
▁franchise	-11.4715
▁lasted	-11.4718
▁penguin	-11.4721
▁cry	-11.4724
▁shirts	-11.4725
▁breed	-11.4726
▁isnt	-11.4729
▁attacked	-11.4731
▁bells	-11.4736
▁topic	-11.474
▁gam	-11.4756
▁boat	-11.4767
▁ocean	-11.4768
▁october	-11.4768
▁stamina	-11.4768
▁quizzes	-11.4768
▁organizing	-11.4768
▁nbc	-11.4768
▁bugged	-11.4768
▁transferring	-11.4769
▁umm	-11.477
am	-11.478
da	-11.4793
▁fights	-11.4794
▁teens	-11.4816
▁whom	-11.4821
▁passcode	-11.4822
bs	-11.4828
▁succeed	-11.4833
▁duplicates	-11.4845
▁opinions	-11.4864
▁behavior	-11.487
▁emergency	-11.487
▁meditate	-11.487
▁british	-11.487
▁gallery	-11.487
▁therapy	-11.4871
▁spoken	-11.4872
▁emotions	-11.4885
▁methods	-11.4888
▁digit	-11.4892
▁fool	-11.4915
▁pal	-11.4915
▁trains	-11.4916
time	-11.492
king	-11.4928
▁soft	-11.4931
stone	-11.4932
co	-11.4935
▁guides	-11.4942
▁cousin	-11.4946
▁mic	-11.4947
▁gung	-11.4954
▁ver	-11.4956
▁encounter	-11.496
ma	-11.4972
▁satisfaction	-11.4973
▁toilet	-11.4973
▁recurring	-11.4973
▁born	-11.4974
▁retry	-11.4975
▁utilize	-11.4978
▁acceptable	-11.4979
▁promises	-11.4982
▁rings	-11.4991
▁cd	-11.4994
▁nick	-11.501
▁annoyance	-11.5031
▁exited	-11.5032
▁booster	-11.5035
▁fields	-11.5038
▁trails	-11.5056
▁rule	-11.5064
▁decks	-11.5065
▁explanations	-11.5071
▁cap	-11.5077
▁spoke	-11.5077
▁defiant	-11.5078
▁san	-11.5081
▁survive	-11.5084
do	-11.5091
▁raid	-11.5097
▁answering	-11.5106
▁borrow	-11.511
▁trades	-11.5112
▁streams	-11.513
▁workflow	-11.5132
▁crew	-11.5132
▁bullet	-11.5133
▁distraction	-11.5136
▁practices	-11.5151
▁dealer	-11.5152
▁sample	-11.5157
io	-11.5173
▁deceptive	-11.5183
▁nonstop	-11.5183
▁rubies	-11.5183
▁afternoon	-11.5183
▁dang	-11.5183
▁cnn	-11.5183
▁sensitivity	-11.5183
▁dresses	-11.5186
▁gta	-11.5186
▁frankly	-11.5187
▁cleared	-11.5189
▁geometr	-11.5195
▁amaze	-11.5197
▁comfort	-11.5199
▁thankfully	-11.5205
▁predictions	-11.5206
▁badge	-11.5239
▁mates	-11.5242
▁sugar	-11.5244
▁leader	-11.5245
▁medication	-11.525
▁visiting	-11.5267
▁rewarded	-11.5268
▁sexy	-11.5274
▁meat	-11.5277
▁attend	-11.5277
▁transport	-11.5289
▁retina	-11.5289
▁etsy	-11.5289
▁practicing	-11.5289
▁implementation	-11.5289
▁duck	-11.5291
▁additions	-11.5295
▁smoother	-11.5301
▁usefull	-11.5303
▁obstacles	-11.5303
▁rss	-11.5305
▁nuts	-11.5307
▁macros	-11.531
▁cs	-11.5324
▁birthdays	-11.5329
▁milk	-11.534
▁doc	-11.5342
▁chef	-11.5351
▁payout	-11.5365
▁wa	-11.5387
▁potter	-11.539
▁hmmm	-11.5391
▁blitz	-11.5396
▁diverse	-11.5397
▁crime	-11.5397
▁capable	-11.5398
▁ish	-11.54
▁restricted	-11.5403
▁nyc	-11.5407
▁dish	-11.541
▁solar	-11.5411
▁crying	-11.542
▁dry	-11.5423
▁breathing	-11.5423
game	-11.5428
▁joining	-11.5433
▁finishing	-11.5437
▁triple	-11.5448
▁cheese	-11.5449
▁incentive	-11.5459
▁branch	-11.546
▁bu	-11.5461
▁networks	-11.548
▁insert	-11.549
▁hype	-11.5495
▁bts	-11.5497
▁fraudulent	-11.5505
▁nostalgia	-11.5505
▁utility	-11.5505
▁faq	-11.5505
▁audible	-11.5506
▁facing	-11.5506
▁inspired	-11.5509
▁animated	-11.551
▁brown	-11.5511
▁lte	-11.5513
▁desperately	-11.5514
▁standards	-11.5514
▁organised	-11.5515
▁blocker	-11.5518
▁pants	-11.552
▁tea	-11.5522
▁pulling	-11.5522
▁village	-11.5523
▁inform	-11.5529
▁promotions	-11.5542
▁chores	-11.5543
▁closet	-11.5554
▁sentences	-11.5556
▁anger	-11.556
▁masterpiece	-11.5567
▁phase	-11.5569
▁mods	-11.5571
▁drinking	-11.5592
▁requir	-11.5596
▁remains	-11.5596
▁papers	-11.5598
▁tilt	-11.56
▁reccomend	-11.5602
▁award	-11.5604
▁authentic	-11.5612
▁slender	-11.5615
▁december	-11.5615
▁handwriting	-11.5615
▁begging	-11.5615
▁mouth	-11.5615
▁twent	-11.5615
▁boredom	-11.5616
▁steady	-11.5616
▁assistant	-11.5617
▁inspirational	-11.5619
▁cluttered	-11.5625
▁twitch	-11.5627
▁located	-11.5634
▁beans	-11.5636
▁upper	-11.5639
▁understandable	-11.5641
▁le	-11.5642
▁evolution	-11.5647
▁films	-11.5648
▁resort	-11.5657
▁hesitate	-11.5658
more	-11.5662
▁classical	-11.5664
▁hung	-11.5675
▁conclusion	-11.5676
▁rose	-11.5677
▁glow	-11.5678
▁passer	-11.5689
▁foot	-11.5699
▁goat	-11.5707
▁dc	-11.5717
▁peaceful	-11.5723
▁imovie	-11.5726
▁mindfulness	-11.5726
▁jelly	-11.5726
▁supply	-11.5727
▁passbook	-11.5728
▁pubg	-11.5728
▁father	-11.5728
▁scott	-11.5728
▁statistics	-11.5729
▁bid	-11.5733
▁supplies	-11.5737
▁scams	-11.5753
▁former	-11.5755
▁fir	-11.5758
▁bookings	-11.5759
▁lived	-11.5764
▁compar	-11.5765
ol	-11.5767
▁fellow	-11.5783
▁sms	-11.5785
▁maneuver	-11.5786
▁acts	-11.5791
▁downfall	-11.5792
▁paywall	-11.5793
▁clubs	-11.5799
going	-11.5804
▁sticker	-11.5805
▁collections	-11.5806
▁pe	-11.5807
▁noises	-11.5819
▁adapt	-11.5819
▁forecasts	-11.5825
▁brave	-11.5826
▁reserve	-11.5836
▁minded	-11.5837
▁br	-11.5837
▁planned	-11.584
▁facetime	-11.5841
▁kool	-11.5841
▁atmosphere	-11.5842
▁mania	-11.5843
▁rx	-11.5844
▁tremendously	-11.5844
▁engaged	-11.5846
▁winter	-11.5851
▁alternate	-11.5854
▁generated	-11.5854
▁reviewed	-11.5861
▁positions	-11.5864
▁ny	-11.5867
▁cheated	-11.5873
▁progressive	-11.588
▁cutest	-11.5891
▁bla	-11.5892
▁pit	-11.5893
▁region	-11.5894
▁accountable	-11.5903
▁scooters	-11.5903
▁dozens	-11.5905
▁scripture	-11.5906
▁requirement	-11.5907
▁arrange	-11.5911
▁stamp	-11.5927
▁static	-11.5929
el	-11.5937
▁fade	-11.5943
▁terribl	-11.5945
▁assign	-11.595
▁galaxy	-11.5952
▁gambling	-11.5952
▁strategies	-11.5952
▁november	-11.5952
▁facility	-11.5952
▁polite	-11.5952
▁dynamic	-11.5952
▁embarrassing	-11.5953
▁xxx	-11.5953
▁gross	-11.5958
▁doors	-11.5959
▁insist	-11.596
▁uh	-11.5963
▁picky	-11.5963
▁adventures	-11.5964
▁calculations	-11.5983
▁authors	-11.5992
▁remaining	-11.5999
▁locking	-11.6001
▁bookmarks	-11.6008
▁slows	-11.6008
▁roads	-11.601
▁daughters	-11.6017
▁breaker	-11.6018
▁australian	-11.6023
▁sheets	-11.6024
▁bob	-11.6026
▁maxed	-11.6037
▁mis	-11.6052
▁explaining	-11.6057
▁anonymous	-11.6057
▁bias	-11.6059
▁chip	-11.606
▁translations	-11.6064
▁concise	-11.6067
▁tumblr	-11.6067
▁yelp	-11.6067
▁wattpad	-11.6067
▁introduction	-11.6067
▁relief	-11.6067
▁trophies	-11.6068
▁shall	-11.608
▁steep	-11.608
▁cheaters	-11.6081
▁flapp	-11.6087
go	-11.6087
▁dial	-11.609
▁fo	-11.6112
▁transitions	-11.6124
▁brothers	-11.6126
▁exam	-11.6133
▁capital	-11.6136
▁ip	-11.6137
▁rocket	-11.6138
▁casting	-11.6143
▁leagues	-11.6164
▁involve	-11.6175
▁coz	-11.6177
▁exiting	-11.6181
▁virus	-11.6182
▁dissatisfied	-11.6183
▁frequency	-11.6183
▁granddaughter	-11.6183
▁illegal	-11.6183
▁discord	-11.6183
▁subscribing	-11.6183
▁western	-11.6184
▁globe	-11.6184
▁severe	-11.6184
▁piss	-11.6185
▁vertical	-11.6188
▁grades	-11.6194
▁aswell	-11.6206
▁upsetting	-11.6207
▁bruh	-11.621
▁checkers	-11.6212
▁investments	-11.6222
▁motivates	-11.6222
▁reloaded	-11.6223
getting	-11.623
box	-11.6235
▁sweat	-11.6238
▁hunting	-11.6252
▁referral	-11.6255
▁dungeon	-11.6255
▁employee	-11.6255
▁efficiently	-11.6261
▁hanging	-11.6277
▁publish	-11.6286
▁polish	-11.6288
▁fuss	-11.6297
▁january	-11.6301
▁unprofessional	-11.6301
▁buddies	-11.6301
▁firmware	-11.6301
▁married	-11.6301
▁society	-11.6301
▁freemium	-11.6301
▁bold	-11.6304
▁crisp	-11.6305
▁costco	-11.6306
▁afterwards	-11.6308
▁personalized	-11.6309
rry	-11.6311
▁pity	-11.6313
▁toward	-11.6315
▁operation	-11.6321
▁limitations	-11.6321
▁swing	-11.6327
▁disappoint	-11.6332
▁angle	-11.6333
▁tweak	-11.6338
▁mp	-11.6341
▁faulty	-11.6344
▁trends	-11.6344
▁broadcast	-11.6349
▁rad	-11.6352
▁efforts	-11.6372
▁conversion	-11.6373
▁vault	-11.6374
um	-11.6374
▁drawback	-11.6374
▁monkey	-11.6374
▁combo	-11.6374
▁preference	-11.6375
▁degree	-11.6375
▁thoughtful	-11.6387
▁iplayer	-11.6398
▁unfollow	-11.6407
▁unexpected	-11.6409
▁basket	-11.642
▁tuesday	-11.642
▁doorbell	-11.642
▁zelle	-11.642
▁intelligent	-11.642
▁racist	-11.6421
▁tycoon	-11.6422
▁glass	-11.6422
▁sneaky	-11.6423
▁oz	-11.6425
▁interruptions	-11.6434
▁kik	-11.6437
▁dinosaurs	-11.6443
▁tied	-11.6449
▁lift	-11.6457
one	-11.6459
▁paired	-11.6462
▁useable	-11.6464
▁mining	-11.6469
▁realy	-11.6477
▁ac	-11.6477
▁queue	-11.6484
▁webpage	-11.6494
▁template	-11.6495
▁fired	-11.6498
▁raw	-11.6498
▁affects	-11.6505
▁suggests	-11.6511
▁youtuber	-11.6512
▁aaa	-11.6516
▁expire	-11.6521
▁retro	-11.6526
▁logical	-11.6532
▁concepts	-11.6533
▁iq	-11.6537
▁unbelievabl	-11.6539
▁aggressive	-11.654
▁pinterest	-11.6541
▁extension	-11.6541
▁bummed	-11.6541
▁fertility	-11.6541
▁lousy	-11.6541
▁skipping	-11.6542
▁saturday	-11.6542
▁copies	-11.6542
▁appalling	-11.6545
▁fr	-11.6545
▁sake	-11.6546
▁toddlers	-11.6548
▁recovery	-11.6552
▁slice	-11.6555
▁thrown	-11.6556
▁abs	-11.6556
▁handful	-11.6556
▁earnings	-11.6561
▁alien	-11.6575
▁carefully	-11.6586
▁nav	-11.6594
▁di	-11.6595
▁forest	-11.6597
▁contains	-11.6597
▁highlighting	-11.6598
▁dies	-11.6601
▁tiktok	-11.661
so	-11.6612
▁teaser	-11.6615
▁sensor	-11.6617
▁mask	-11.6619
▁metal	-11.6628
▁requesting	-11.6635
▁compet	-11.6647
▁horoscopes	-11.6651
▁slack	-11.666
▁acquire	-11.6662
▁thieves	-11.6662
▁kawaii	-11.6662
▁communicating	-11.6662
▁church	-11.6663
▁cyber	-11.6663
▁agents	-11.6663
▁bacon	-11.6663
▁possibility	-11.6663
▁honor	-11.6663
▁dirty	-11.6665
▁rlly	-11.6665
▁delightful	-11.6665
pad	-11.6667
▁referr	-11.6677
▁gig	-11.6683
▁quits	-11.6684
▁usd	-11.6685
▁burned	-11.6689
▁disconnecting	-11.6691
▁clone	-11.6694
▁gap	-11.6725
▁ce	-11.6726
▁desire	-11.673
▁reloading	-11.6733
▁wearing	-11.6734
▁therapist	-11.6739
▁signature	-11.674
▁approve	-11.674
▁alike	-11.6747
▁hay	-11.6749
▁subscribers	-11.6752
▁pie	-11.6762
▁suits	-11.6766
▁ratio	-11.6772
▁engage	-11.6777
ated	-11.6781
▁transit	-11.6785
▁incomplete	-11.6786
▁robust	-11.6786
▁immersive	-11.6786
▁jazz	-11.6787
▁voiceover	-11.6787
▁cycling	-11.6787
▁russian	-11.6787
ance	-11.6788
▁shards	-11.6796
▁archive	-11.6797
▁union	-11.6799
▁challenged	-11.6803
q	-11.6812
▁mall	-11.6816
▁partners	-11.6823
▁poses	-11.6827
▁virgin	-11.6839
▁retain	-11.684
▁raised	-11.6842
▁justify	-11.6845
▁exclusive	-11.6852
▁commands	-11.6858
▁prayers	-11.6858
▁programme	-11.6862
▁arrival	-11.6864
▁incorporate	-11.6864
▁sniper	-11.6864
▁brick	-11.6865
▁laughing	-11.6865
▁admin	-11.6865
▁poo	-11.6866
▁carb	-11.6869
▁shopper	-11.6874
▁viewer	-11.6886
▁cleaner	-11.6895
▁sling	-11.6901
▁gs	-11.6908
▁coast	-11.6909
▁tick	-11.691
▁arsenal	-11.6911
▁nonetheless	-11.6911
▁university	-11.6911
▁accessibility	-11.6911
▁humor	-11.6911
▁pilot	-11.6912
▁directv	-11.6913
▁registering	-11.6913
▁exits	-11.6913
▁partial	-11.6913
▁timeline	-11.6914
▁identity	-11.6914
▁immensely	-11.6914
▁goodnotes	-11.6915
▁brushes	-11.6915
▁dependable	-11.6916
▁visa	-11.6916
▁tempo	-11.6918
▁substitute	-11.6923
▁rendered	-11.6928
em	-11.693
▁painting	-11.6933
▁physically	-11.6937
▁att	-11.6959
▁corrected	-11.696
▁trend	-11.6962
▁appearing	-11.698
▁dashboard	-11.6982
▁continu	-11.6984
▁guests	-11.6986
▁react	-11.6989
▁appearance	-11.6989
▁vid	-11.699
▁aesthetic	-11.6991
▁examples	-11.6993
▁havent	-11.6998
▁wings	-11.6999
▁wen	-11.6999
▁surprising	-11.7026
▁woo	-11.703
▁grandma	-11.7032
▁travels	-11.7034
oo	-11.7037
▁facial	-11.7037
▁hesitant	-11.7037
▁parcel	-11.7037
▁narrow	-11.7038
▁smoking	-11.7038
▁knife	-11.7038
▁healthier	-11.7038
▁reliability	-11.7039
▁crown	-11.7039
▁bypass	-11.704
▁vice	-11.7042
▁bf	-11.7045
▁factory	-11.7049
▁mi	-11.7061
▁wtf	-11.7064
▁ch	-11.7067
▁afl	-11.7071
▁promptly	-11.708
▁reminded	-11.7083
▁atm	-11.709
▁claimed	-11.7106
▁cr	-11.711
▁panda	-11.7119
▁heaven	-11.7119
▁peak	-11.7121
▁spring	-11.7124
▁claw	-11.7131
▁formats	-11.7131
▁bothers	-11.7149
▁increases	-11.716
intillion	-11.7163
▁depression	-11.7166
▁flipagram	-11.7166
▁surgery	-11.7166
▁grew	-11.7166
▁vsco	-11.7166
▁toyota	-11.7166
▁soundcloud	-11.7167
▁overpowered	-11.7168
▁overdrive	-11.7168
▁revise	-11.7175
▁upfront	-11.7177
▁scrolls	-11.7178
▁punch	-11.7181
▁smarter	-11.7182
ph	-11.72
▁touches	-11.7207
▁finder	-11.7207
▁addict	-11.7215
▁carbs	-11.7217
▁badges	-11.7222
▁agreed	-11.7234
▁gui	-11.7242
▁cartoon	-11.7242
▁improves	-11.7242
▁insights	-11.7244
▁foundation	-11.7245
▁beg	-11.7249
▁needless	-11.7258
▁ho	-11.7262
▁hourly	-11.7267
▁rendering	-11.727
▁bombs	-11.7273
▁attach	-11.7283
▁movements	-11.7289
▁acc	-11.7293
ba	-11.7294
▁motivator	-11.7296
▁simplistic	-11.7296
▁lottery	-11.7296
▁clarity	-11.7296
▁california	-11.7296
▁pulse	-11.7296
▁unsure	-11.7296
▁atrocious	-11.7297
▁deliveries	-11.7297
▁shade	-11.7303
and	-11.7303
▁rick	-11.7324
▁pirates	-11.7327
▁gestures	-11.7328
▁cos	-11.7332
▁degrees	-11.7346
▁separately	-11.7358
corporate	-11.736
▁intervals	-11.736
▁toys	-11.7361
▁ot	-11.7362
▁bee	-11.7366
▁judge	-11.7367
▁promt	-11.7371
▁pretend	-11.7374
▁audience	-11.7378
▁moods	-11.7379
▁soundtrack	-11.738
▁notebook	-11.7382
▁selfie	-11.7382
ap	-11.7393
▁establish	-11.74
▁experiment	-11.7404
▁participate	-11.7419
▁gf	-11.7424
▁chris	-11.7426
▁lovin	-11.7427
▁atleast	-11.7427
▁unbearable	-11.7428
▁authentication	-11.7428
▁peasy	-11.7428
▁blatant	-11.7428
▁barclays	-11.7428
▁varied	-11.7428
▁james	-11.7432
▁funnies	-11.7435
▁mike	-11.7437
▁mixes	-11.7442
▁interrupted	-11.7453
▁assignments	-11.7463
▁author	-11.7476
▁crowd	-11.7486
▁shine	-11.7495
▁horribl	-11.7499
▁nerf	-11.75
▁hardest	-11.7502
▁defend	-11.7504
▁evolve	-11.7505
▁forms	-11.751
▁instrument	-11.7513
▁impression	-11.7514
▁queen	-11.7515
▁chore	-11.7515
▁wat	-11.7516
▁central	-11.7528
▁rn	-11.7531
▁duo	-11.7536
▁dispute	-11.7539
▁intend	-11.7548
▁wire	-11.755
▁secs	-11.7551
▁porn	-11.7559
▁dimension	-11.7559
▁astrology	-11.756
▁necessarily	-11.756
▁savvy	-11.7561
▁ultra	-11.7561
▁reliably	-11.7561
▁airbnb	-11.7561
▁universal	-11.7561
▁mouse	-11.7561
▁passport	-11.7561
▁crib	-11.7562
▁advisor	-11.7562
▁completion	-11.7562
▁congratulations	-11.7562
▁hiding	-11.7564
▁fascinating	-11.7565
▁irritated	-11.7566
▁gameloft	-11.7567
▁duration	-11.7571
▁supportive	-11.7571
▁severely	-11.7573
▁honey	-11.7577
▁cough	-11.7578
▁whistles	-11.7581
▁noom	-11.7581
▁shortcuts	-11.7586
▁ink	-11.7595
▁bare	-11.7598
tating	-11.7598
▁japan	-11.7599
▁novel	-11.7603
▁tim	-11.7604
▁lane	-11.7606
▁fasting	-11.761
hora	-11.7611
▁suite	-11.763
▁saga	-11.7634
▁exp	-11.7635
▁farther	-11.7639
▁rockstar	-11.7643
▁drama	-11.7645
▁height	-11.7647
▁waze	-11.7647
▁bathroom	-11.7648
▁morty	-11.7649
▁expansion	-11.7649
▁preset	-11.765
▁crystal	-11.765
▁dino	-11.7651
▁string	-11.7656
▁rt	-11.7664
▁prep	-11.7675
▁stor	-11.7676
▁obscure	-11.7676
▁uploads	-11.7677
▁alter	-11.7678
▁discuss	-11.7678
▁represent	-11.7681
▁spaces	-11.7688
be	-11.7689
▁dust	-11.7691
▁nervous	-11.7696
▁happiness	-11.7696
▁television	-11.7696
▁military	-11.7696
▁unreal	-11.7696
▁insightful	-11.7696
▁eager	-11.7696
▁rotation	-11.7696
▁denied	-11.7696
▁contrast	-11.7696
▁alaska	-11.7697
▁temporary	-11.7697
▁threesome	-11.7697
▁bugging	-11.7697
▁handling	-11.7697
▁theft	-11.7699
▁upside	-11.7702
▁noticeable	-11.7703
▁keyboards	-11.7707
▁catalogue	-11.7707
▁pix	-11.7711
star	-11.7715
▁pig	-11.7721
▁drill	-11.7724
▁rescue	-11.7735
j	-11.7748
ble	-11.7749
▁dealt	-11.7757
▁wee	-11.7768
▁clearing	-11.7772
▁motivate	-11.7779
▁gained	-11.778
▁waves	-11.7783
▁debt	-11.7785
▁smartphone	-11.7786
▁achievement	-11.7787
▁adjustment	-11.7788
▁copying	-11.779
▁labels	-11.7804
▁rider	-11.7817
▁lowered	-11.7821
▁faith	-11.7824
▁corrupt	-11.7832
▁florida	-11.7833
▁external	-11.7833
▁precious	-11.7833
▁nhl	-11.7833
▁construction	-11.7833
▁voting	-11.7833
▁oil	-11.7836
▁grabbing	-11.7837
▁chums	-11.7837
▁overview	-11.784
▁zones	-11.784
▁broad	-11.7841
▁subtitles	-11.7844
▁holds	-11.7845
▁abc	-11.7846
▁drum	-11.7851
▁na	-11.7852
▁silence	-11.7853
▁lab	-11.7857
▁mph	-11.7858
▁jewels	-11.786
▁arrives	-11.7865
▁brutal	-11.787
ha	-11.7877
▁limiting	-11.7894
▁statements	-11.7902
▁suck	-11.7903
▁camper	-11.7908
▁begins	-11.7908
▁canvas	-11.7916
▁sink	-11.7917
▁donate	-11.7919
▁arms	-11.7919
▁liberal	-11.7923
▁column	-11.7924
▁novice	-11.7925
▁pou	-11.7926
▁portal	-11.7928
istic	-11.793
▁owe	-11.7953
▁clutter	-11.7959
▁permanent	-11.796
▁desperate	-11.7961
▁slides	-11.7962
my	-11.7963
▁dishonest	-11.7964
▁trans	-11.7969
▁rail	-11.797
▁imagination	-11.7972
▁slept	-11.7972
▁stellar	-11.7972
▁walgreens	-11.7972
▁cbc	-11.7972
▁speaks	-11.7975
▁cache	-11.7975
▁thread	-11.7975
▁personality	-11.7976
▁cardio	-11.7978
▁tops	-11.7981
▁bikes	-11.7983
▁cutt	-11.7989
▁programmers	-11.7993
▁pulls	-11.8024
per	-11.8028
▁synch	-11.8034
▁cooler	-11.8043
▁refreshed	-11.8048
▁occur	-11.8052
▁dated	-11.8053
▁processed	-11.8055
▁transform	-11.8059
▁nickname	-11.8065
▁quarter	-11.8066
▁shake	-11.8066
▁objective	-11.8067
▁photographer	-11.8067
▁eve	-11.8067
▁tar	-11.8087
▁theater	-11.809
▁genres	-11.8092
▁adjusting	-11.8093
▁follows	-11.8097
▁customiz	-11.8099
▁patients	-11.8099
▁memorize	-11.8109
▁rename	-11.8109
▁squares	-11.8112
▁vintage	-11.8112
▁offensive	-11.8112
▁duty	-11.8113
▁suspicious	-11.8113
▁pnc	-11.8113
▁christian	-11.8113
▁susan	-11.8113
▁dishes	-11.8115
▁lens	-11.8116
▁beaten	-11.8119
▁programmed	-11.8124
▁safer	-11.8126
▁btd	-11.8127
fi	-11.8128
▁produced	-11.8129
▁uni	-11.813
ine	-11.8132
▁soooooooo	-11.8135
▁pa	-11.8135
▁slimes	-11.8136
▁placement	-11.814
▁mc	-11.8144
▁protected	-11.8152
▁pr	-11.8154
▁recognized	-11.816
▁instruments	-11.8161
▁hacking	-11.8168
▁crossing	-11.8198
▁commit	-11.8203
▁cafe	-11.8206
▁jigsaw	-11.8207
▁vegan	-11.8211
▁semi	-11.8212
▁serving	-11.8216
▁gather	-11.8221
▁sketch	-11.8223
▁timetable	-11.8225
▁legend	-11.8242
▁italian	-11.8255
▁legitimate	-11.8255
▁ovulation	-11.8255
▁president	-11.8255
▁piggy	-11.8255
▁stimulating	-11.8255
▁river	-11.8256
▁yummy	-11.8256
▁linkedin	-11.8257
▁webtoon	-11.8258
▁dodge	-11.8258
▁knowledgeable	-11.826
▁scare	-11.8264
▁ranks	-11.8266
▁surfers	-11.8268
▁activated	-11.8273
▁diapers	-11.8276
▁jus	-11.8282
▁neighbors	-11.8296
▁panel	-11.8297
▁combos	-11.8311
▁thin	-11.8331
▁classroom	-11.8352
▁amateur	-11.8353
▁bargain	-11.8354
▁chord	-11.8355
▁rap	-11.837
▁bunny	-11.8376
▁wheels	-11.8379
▁tile	-11.8382
▁submitt	-11.8388
▁settle	-11.84
▁anxious	-11.84
▁premise	-11.84
▁bumble	-11.84
▁vague	-11.84
▁supper	-11.84
▁unusual	-11.84
▁breakdown	-11.8401
▁thirty	-11.8401
▁brightness	-11.8401
▁reliever	-11.8402
▁checklist	-11.8403
▁portable	-11.8404
▁compass	-11.8406
▁kitty	-11.8413
▁decorations	-11.8415
▁lineup	-11.8417
▁fooled	-11.8419
▁plugg	-11.8432
▁revive	-11.8435
▁responds	-11.8444
▁drifting	-11.8447
▁lied	-11.8454
▁recall	-11.8464
▁shower	-11.8467
▁ears	-11.8469
▁bb	-11.8473
▁url	-11.8477
▁stumble	-11.8483
▁fam	-11.8485
▁cube	-11.8492
▁fx	-11.8493
▁satellite	-11.85
▁subjects	-11.8501
▁zen	-11.8501
▁competitor	-11.8501
▁chain	-11.8501
▁interactions	-11.8506
▁relie	-11.8507
▁individuals	-11.8509
▁landing	-11.8511
▁hurts	-11.8514
▁vr	-11.8522
▁abuse	-11.8523
▁ne	-11.8525
ible	-11.8531
▁figures	-11.8534
▁fulfill	-11.8536
▁marking	-11.8539
▁holes	-11.8542
▁tasty	-11.8544
▁pins	-11.8547
▁clumsy	-11.8547
▁nostalgic	-11.8547
▁contribute	-11.8547
▁stylus	-11.8547
▁encouragement	-11.8548
▁oof	-11.8549
▁paycheck	-11.855
▁playstation	-11.855
▁discussion	-11.8551
▁transformers	-11.8553
▁acknowledge	-11.8553
▁installation	-11.8557
▁fallen	-11.8558
▁handed	-11.8575
▁pairs	-11.8583
▁quantit	-11.8586
▁gosh	-11.8598
▁token	-11.8603
▁presents	-11.8605
ate	-11.8605
▁differently	-11.8614
▁acct	-11.8615
▁spoil	-11.8633
▁fm	-11.8638
▁remembered	-11.864
▁avatars	-11.8641
▁hookup	-11.865
▁lake	-11.865
▁passenger	-11.865
▁reaction	-11.8651
▁popup	-11.8654
▁output	-11.8663
▁frick	-11.8667
ned	-11.867
▁definite	-11.8686
▁gods	-11.8692
▁weigh	-11.8693
▁exercising	-11.8696
▁texas	-11.8696
▁dancing	-11.8697
▁household	-11.8697
▁problematic	-11.8698
▁retired	-11.8699
▁hiking	-11.8699
▁bout	-11.87
▁multitasking	-11.8701
▁supercell	-11.8702
▁southwest	-11.8702
▁bash	-11.8703
▁meaningful	-11.8709
▁assigned	-11.8715
▁driven	-11.8723
▁moderate	-11.8725
cy	-11.8742
▁loops	-11.8751
▁ah	-11.8753
▁wu	-11.876
▁formula	-11.8767
▁pac	-11.8769
▁builds	-11.877
▁context	-11.8784
▁talent	-11.8787
▁court	-11.88
▁slideshow	-11.8801
▁advertises	-11.881
room	-11.8814
▁rais	-11.8815
▁gang	-11.8816
▁relationships	-11.8831
mo	-11.8835
▁writer	-11.8836
▁concentrate	-11.884
ern	-11.8841
▁papa	-11.8844
▁deceiving	-11.8848
▁february	-11.8848
▁trello	-11.8848
▁protein	-11.8848
▁reception	-11.8848
▁departure	-11.8848
▁diversity	-11.8848
▁teleport	-11.8848
▁concentration	-11.8848
▁unclear	-11.8848
▁shout	-11.8848
▁drove	-11.8849
▁hq	-11.885
▁bland	-11.8851
▁weekends	-11.8851
▁postmates	-11.8853
▁aesthetically	-11.8853
▁politics	-11.8853
▁wishlist	-11.8854
▁moba	-11.8855
▁groupon	-11.8856
▁formatting	-11.8858
▁onenote	-11.8863
▁dive	-11.8863
▁ol	-11.8863
▁awarded	-11.8866
▁tweet	-11.8872
▁assumed	-11.8873
▁scope	-11.8876
▁specials	-11.8877
▁mature	-11.8887
▁handles	-11.8889
▁ee	-11.8893
▁wit	-11.8898
ck	-11.8912
▁shares	-11.8921
▁ye	-11.8923
▁recomend	-11.8934
▁cow	-11.8938
▁prescriptions	-11.8949
▁boi	-11.895
▁revision	-11.8956
book	-11.8959
▁trailer	-11.8959
▁brief	-11.8967
▁fift	-11.897
▁counted	-11.898
▁lov	-11.899
▁ski	-11.8995
▁speedy	-11.8999
▁equivalent	-11.9002
▁smule	-11.9002
▁shazam	-11.9002
▁responsibl	-11.9002
▁venmo	-11.9002
▁libby	-11.9002
▁detection	-11.9002
▁el	-11.9003
▁keen	-11.9003
▁choppy	-11.9004
▁relieve	-11.9004
▁simplified	-11.9004
▁fare	-11.9005
▁snooze	-11.9007
▁maze	-11.9009
▁sketchy	-11.9009
▁abandoned	-11.9012
▁dominos	-11.9012
▁exceeded	-11.9013
ped	-11.9017
▁firm	-11.9017
▁steering	-11.9023
▁accountability	-11.9025
ends	-11.9046
▁viewers	-11.9057
▁crossed	-11.9058
▁admins	-11.9059
ier	-11.9059
▁btc	-11.9063
▁caring	-11.9072
▁adjusted	-11.908
▁jan	-11.9085
▁shortly	-11.9088
▁reveal	-11.9098
▁decrease	-11.9104
▁combinations	-11.9104
▁medicine	-11.9111
▁compliment	-11.9112
▁ck	-11.912
▁outlet	-11.9122
▁adopt	-11.9124
▁prob	-11.9129
▁sexual	-11.9141
▁schools	-11.9142
▁rob	-11.9143
▁bin	-11.9148
life	-11.915
▁cp	-11.915
▁steve	-11.9156
▁currencies	-11.9158
▁hsbc	-11.9158
▁imessage	-11.9158
▁turbo	-11.9158
▁geico	-11.9158
▁puppy	-11.9158
▁rovio	-11.9158
▁understood	-11.9158
▁indication	-11.9159
▁quirky	-11.9159
▁operating	-11.9159
▁ummm	-11.9159
▁craftsy	-11.916
▁ditch	-11.9161
▁commentary	-11.9161
▁treatment	-11.9162
▁hahaha	-11.9165
▁reorder	-11.9169
▁buses	-11.917
▁exclusively	-11.9172
▁stash	-11.9174
▁heading	-11.9177
▁hip	-11.9179
▁gathering	-11.9183
▁trending	-11.9186
▁zooming	-11.9186
sses	-11.9241
▁blend	-11.9246
net	-11.9257
▁rout	-11.9262
▁criminal	-11.9269
▁complication	-11.9271
▁newbie	-11.9271
▁carrier	-11.9272
▁musician	-11.9274
▁banana	-11.9274
▁sir	-11.9286
▁trainers	-11.9291
▁pose	-11.9293
▁nag	-11.9295
red	-11.93
isation	-11.9304
▁independent	-11.9306
▁flower	-11.9307
▁wealth	-11.931
▁consume	-11.9315
▁aka	-11.9316
▁government	-11.9317
▁santander	-11.9317
▁specify	-11.9317
▁armour	-11.9317
▁midnight	-11.9317
▁tomtom	-11.9317
▁criteria	-11.9317
▁pod	-11.932
▁midi	-11.9322
▁cop	-11.9327
▁extent	-11.9327
▁controlled	-11.9329
▁teammates	-11.933
▁smell	-11.9331
▁milestones	-11.9333
▁mild	-11.9338
▁mash	-11.9339
▁officially	-11.9344
▁nerves	-11.9345
▁kinks	-11.9346
▁duel	-11.9348
▁techniques	-11.9355
▁powers	-11.9357
▁layouts	-11.9357
▁announce	-11.9359
▁realm	-11.9377
▁iwatch	-11.9395
ism	-11.9399
▁esp	-11.9403
▁managers	-11.9412
▁streaks	-11.9419
▁messy	-11.942
▁scatter	-11.9424
▁editors	-11.9428
▁neighbor	-11.9432
▁gimmick	-11.9433
▁gp	-11.9443
▁excelent	-11.9444
▁digg	-11.9454
▁contents	-11.9456
▁artistic	-11.9456
▁steer	-11.9457
▁sand	-11.9463
▁horizontal	-11.9467
▁configure	-11.947
▁hopeful	-11.9473
▁sluggish	-11.9478
▁spectrum	-11.9478
▁temporarily	-11.9478
▁century	-11.9478
▁grubhub	-11.9478
▁sufficient	-11.9478
▁decorating	-11.9478
▁intermittent	-11.9478
▁paragraph	-11.9478
▁simulation	-11.9478
▁generator	-11.9478
▁xyz	-11.9478
▁trustworthy	-11.9479
▁additive	-11.948
▁mapping	-11.9481
▁promoting	-11.9481
▁yall	-11.9481
ps	-11.9489
▁relate	-11.9491
▁hearth	-11.9491
▁priceless	-11.9492
▁unexpectedly	-11.9493
men	-11.9495
▁freebies	-11.9497
▁equally	-11.9499
▁cure	-11.9503
lly	-11.9504
ny	-11.9504
of	-11.951
▁bounce	-11.9511
▁greatness	-11.9512
▁ra	-11.9515
▁bam	-11.953
▁slider	-11.9534
back	-11.9535
▁existed	-11.9536
▁sensors	-11.9539
▁surprises	-11.9547
▁mu	-11.9576
▁den	-11.958
▁powered	-11.9581
▁tad	-11.9589
▁indicate	-11.959
▁india	-11.959
▁jay	-11.959
▁progressing	-11.9603
rely	-11.9612
▁draws	-11.9613
▁edges	-11.9616
▁pill	-11.9626
▁blink	-11.9631
▁gi	-11.9634
▁sigh	-11.964
▁graal	-11.9642
▁september	-11.9642
▁crucial	-11.9642
▁stylish	-11.9642
▁glory	-11.9642
▁bogus	-11.9642
▁wawa	-11.9642
▁galore	-11.9642
▁scamming	-11.9642
▁unblock	-11.9642
▁scout	-11.9642
▁disgusted	-11.9643
▁convinced	-11.9649
▁surface	-11.9653
▁troubleshooting	-11.9654
▁warnings	-11.9657
▁wing	-11.9658
▁thingy	-11.9658
▁wonders	-11.9663
▁accomplished	-11.9665
sent	-11.9673
▁drugs	-11.9676
▁renewed	-11.968
▁frogs	-11.9686
▁laughs	-11.9691
▁script	-11.9696
▁flips	-11.9697
▁mod	-11.9698
▁swipes	-11.9702
▁journeys	-11.9704
▁selfies	-11.9704
ns	-11.9707
▁geo	-11.9722
▁longest	-11.973
▁dec	-11.973
suming	-11.9734
▁alphabet	-11.9735
vz	-11.9739
▁ignor	-11.9743
▁excuses	-11.9744
▁msg	-11.9748
▁exposure	-11.9753
▁marathon	-11.976
▁wash	-11.9761
▁flyer	-11.9772
▁internal	-11.9799
▁personalize	-11.9803
▁organise	-11.9804
▁retail	-11.9807
▁caution	-11.9808
▁redundant	-11.9809
▁karma	-11.9809
▁celebrity	-11.9809
▁romance	-11.9809
▁aircraft	-11.9809
▁bedroom	-11.9809
▁sideways	-11.9809
▁sophisticated	-11.9809
▁disease	-11.9809
▁dodgy	-11.981
▁invisible	-11.9811
▁bose	-11.9811
▁inter	-11.9811
▁ola	-11.9811
▁robbed	-11.9813
▁bone	-11.9821
▁bagels	-11.9826
▁rv	-11.9829
▁lime	-11.9834
he	-11.984
▁pan	-11.984
▁brainer	-11.9842
▁theirs	-11.9842
▁usb	-11.9845
▁infinity	-11.986
▁chords	-11.9862
▁writers	-11.9866
▁fu	-11.9879
tastic	-11.9888
▁mmo	-11.9893
▁trace	-11.9896
▁performs	-11.9905
▁eva	-11.9906
▁ft	-11.9911
▁buffer	-11.9911
▁gre	-11.9918
▁vital	-11.9926
▁streets	-11.993
▁newborn	-11.993
▁costumer	-11.9932
▁calculation	-11.9932
▁supplement	-11.9932
▁yard	-11.9934
▁assignment	-11.9934
▁passion	-11.9936
▁glu	-11.994
▁hatch	-11.9943
▁scored	-11.9949
▁sis	-11.9952
▁symbol	-11.997
▁balancing	-11.9978
▁nursing	-11.9978
▁deciding	-11.9978
▁overhaul	-11.9978
▁confusion	-11.9978
▁irrelevant	-11.9978
▁uncomfortable	-11.9978
▁drastically	-11.9978
▁transparent	-11.9978
▁ordinary	-11.9978
▁spice	-11.9979
▁repetition	-11.9979
▁easter	-11.9979
▁studies	-11.9979
▁humans	-11.998
▁overnight	-11.998
▁harvest	-11.998
▁ocr	-11.998
▁myfitnesspal	-11.9982
▁streamlined	-11.9982
▁fot	-11.9984
▁delighted	-11.9987
▁onedrive	-11.9988
▁matt	-11.999
▁era	-11.9997
▁structured	-11.9997
▁sizing	-11.9997
▁bowl	-11.9999
▁caller	-12.0003
▁duh	-12.0004
▁premier	-12.0009
▁proven	-12.0016
▁spy	-12.0019
▁travelers	-12.0027
oin	-12.003
▁treated	-12.0031
ware	-12.0038
▁faults	-12.0046
il	-12.0046
▁visited	-12.0057
▁yu	-12.0066
▁bg	-12.0072
▁cal	-12.0073
▁trek	-12.0083
▁wo	-12.0083
▁agenda	-12.0101
▁leaderboard	-12.0103
▁commitment	-12.0103
▁salon	-12.0106
▁director	-12.0109
▁chair	-12.011
▁stink	-12.011
▁starters	-12.0113
▁panic	-12.0122
▁trim	-12.0124
▁sword	-12.0125
▁dragg	-12.0127
▁disgrace	-12.015
▁yourselves	-12.0151
▁footage	-12.0151
▁prodigy	-12.0151
▁consistency	-12.0151
▁nuff	-12.0152
▁fallout	-12.0152
▁robbery	-12.0152
▁simultaneously	-12.0152
▁slacker	-12.0155
▁cancer	-12.0156
▁nurse	-12.0157
▁faithful	-12.0162
▁rejected	-12.0162
▁doubles	-12.0164
▁frog	-12.0165
▁props	-12.017
▁resize	-12.0172
▁airports	-12.0177
▁athan	-12.0183
▁invited	-12.0188
▁cinema	-12.0191
▁symbols	-12.0198
aaaaaaaaaaaaaaaa	-12.0202
▁flipp	-12.0206
▁occurs	-12.0207
▁samples	-12.0227
▁county	-12.0231
dy	-12.0238
▁expanding	-12.0241
▁consumers	-12.0241
▁differences	-12.0241
▁breathe	-12.0257
▁entertain	-12.026
▁poke	-12.0265
▁profits	-12.0272
▁catalog	-12.0275
▁weights	-12.0277
love	-12.0278
▁snake	-12.028
▁nation	-12.0281
▁outdoor	-12.0281
▁cups	-12.0286
▁cord	-12.0288
▁salt	-12.029
▁defaults	-12.0295
cell	-12.0304
▁eras	-12.031
▁urgent	-12.0315
▁conceive	-12.0318
▁phrase	-12.0323
▁sandwich	-12.0324
▁inexpensive	-12.0326
▁procreate	-12.0326
▁wardrobe	-12.0326
▁lobby	-12.0326
▁godsend	-12.0326
▁chaos	-12.0326
▁shelter	-12.0326
▁scientific	-12.0326
▁pixelated	-12.0326
▁telegram	-12.0327
▁skipped	-12.0327
▁awareness	-12.0329
▁rearrange	-12.0336
▁gopro	-12.0336
mobi	-12.0337
▁grabs	-12.034
▁wahoo	-12.0341
▁colleagues	-12.0341
▁costumes	-12.0342
▁kim	-12.0343
▁headlines	-12.0345
▁hates	-12.0348
▁healing	-12.0348
▁inch	-12.035
▁strangers	-12.0351
▁bing	-12.0354
▁wipe	-12.0355
▁bulbs	-12.0356
▁shove	-12.036
well	-12.0361
▁blessed	-12.0362
▁jo	-12.0367
▁borders	-12.037
▁jet	-12.0371
▁objectives	-12.0384
▁sheer	-12.039
▁bay	-12.0393
▁dungeons	-12.0395
▁filler	-12.0396
▁li	-12.0397
▁cod	-12.0398
▁ev	-12.0398
▁fraction	-12.0406
▁tie	-12.0406
ial	-12.041
▁ghosts	-12.0414
▁bath	-12.0415
▁sharks	-12.0419
▁cater	-12.0419
▁juice	-12.0424
▁mornings	-12.0429
▁bust	-12.0429
ah	-12.043
▁incoming	-12.043
▁journaling	-12.0439
▁heal	-12.044
▁jk	-12.0451
▁dam	-12.0456
▁roster	-12.0457
▁outcome	-12.0458
▁accent	-12.0458
▁plate	-12.0461
▁asian	-12.0461
▁knot	-12.0466
▁exceed	-12.047
▁apt	-12.0473
▁pi	-12.0481
▁pleas	-12.0489
la	-12.0492
▁initiate	-12.0494
▁convince	-12.0497
▁bud	-12.0502
▁gluten	-12.0505
▁robinhood	-12.0505
▁unnecessarily	-12.0505
▁worries	-12.0505
▁firefox	-12.0505
▁michael	-12.0505
▁capacity	-12.0505
▁strict	-12.0505
▁knight	-12.0505
▁nasty	-12.0506
▁periodically	-12.0506
▁distances	-12.0506
▁oriented	-12.0508
▁grace	-12.0512
▁historical	-12.0514
▁defo	-12.0515
▁secrets	-12.0516
▁elf	-12.052
▁pipe	-12.0525
▁wwe	-12.0526
continuing	-12.0543
▁clearer	-12.0545
▁discovery	-12.0545
▁competitions	-12.0546
▁mag	-12.0547
▁instructors	-12.0548
▁cops	-12.0556
▁notability	-12.0579
▁focusing	-12.0583
▁er	-12.059
▁overlay	-12.0599
▁fa	-12.0599
cast	-12.0608
▁summons	-12.061
▁minds	-12.0618
▁kings	-12.0619
▁daddy	-12.0632
▁culture	-12.0639
▁mcdonald	-12.064
▁restriction	-12.0641
ons	-12.0644
▁worrying	-12.0648
▁stan	-12.0649
▁bound	-12.0652
▁flashing	-12.0653
▁runners	-12.0653
▁controll	-12.0686
▁invites	-12.0686
▁correspond	-12.0686
▁conjunction	-12.0686
▁pausing	-12.0686
▁conservative	-12.0686
▁bmw	-12.0687
▁hubby	-12.0687
▁frontier	-12.0687
▁educate	-12.0688
▁injury	-12.0689
▁shameful	-12.0689
▁align	-12.0689
▁sonos	-12.0689
▁roomster	-12.069
▁nagging	-12.0691
▁hut	-12.0693
▁distracted	-12.0698
▁attachments	-12.0717
▁crossy	-12.0721
▁sorta	-12.0722
▁verbal	-12.0723
▁nova	-12.0725
▁nap	-12.0728
▁alas	-12.074
▁pairing	-12.0748
▁nah	-12.0765
▁boats	-12.077
▁coordinate	-12.077
▁awards	-12.0778
▁triggers	-12.0778
▁disc	-12.0786
▁arrows	-12.0786
▁directed	-12.08
▁thumbnail	-12.0825
▁empire	-12.0825
▁gesture	-12.0826
▁border	-12.0829
nab	-12.083
▁sequence	-12.0835
▁bucket	-12.0844
▁whisper	-12.0847
▁charger	-12.0858
▁harass	-12.0858
ff	-12.0862
▁apples	-12.0865
▁hav	-12.0865
▁towns	-12.087
▁unhelpful	-12.0872
▁cherries	-12.0872
▁urban	-12.0872
▁underground	-12.0872
▁cherry	-12.0872
▁fyi	-12.0872
▁vbucks	-12.0872
▁alongside	-12.0872
▁consent	-12.0872
▁grass	-12.0872
▁wayfair	-12.0872
▁treadmill	-12.0873
▁homekit	-12.0873
▁victory	-12.0873
▁realizing	-12.0873
▁nowadays	-12.0873
▁anniversary	-12.0873
▁aj	-12.0873
▁popularity	-12.0873
▁automation	-12.0874
ad	-12.0874
chat	-12.0874
▁pampers	-12.0875
▁committed	-12.0877
▁gauge	-12.088
▁bond	-12.0881
▁peoples	-12.0882
▁colourful	-12.0882
▁appletv	-12.0883
▁awesomely	-12.0883
▁spoiled	-12.0888
▁haters	-12.0895
over	-12.0903
▁sticks	-12.0906
▁pockets	-12.0906
▁champions	-12.0907
▁finishes	-12.0908
ke	-12.091
▁deserved	-12.0911
list	-12.0912
▁wipes	-12.092
▁mor	-12.0922
▁awe	-12.0926
▁flyers	-12.0926
▁massively	-12.0933
▁pun	-12.0936
▁sp	-12.0945
▁renewing	-12.0945
▁populate	-12.0954
▁definitions	-12.096
▁demanding	-12.0963
▁allot	-12.0964
▁endlessly	-12.0966
▁dual	-12.0971
▁experts	-12.0972
▁hog	-12.0974
▁titan	-12.0988
▁visits	-12.099
▁hinge	-12.1005
▁swim	-12.1009
▁burger	-12.1014
▁variation	-12.1014
▁span	-12.1016
▁gooood	-12.1017
▁troubles	-12.1017
▁kart	-12.1019
▁flood	-12.1038
tta	-12.1039
▁importing	-12.1041
▁greet	-12.1048
▁insult	-12.1048
▁locally	-12.1049
▁subtle	-12.106
▁economy	-12.106
▁responsibility	-12.106
▁telephone	-12.106
hi	-12.106
▁policies	-12.106
▁expedia	-12.106
▁impatient	-12.106
▁nickel	-12.1061
▁david	-12.1061
▁ftp	-12.1061
▁france	-12.1061
▁stingy	-12.1062
▁calc	-12.1062
▁approval	-12.1062
▁unread	-12.1063
▁repost	-12.1064
▁coo	-12.1069
▁amex	-12.1071
▁friendship	-12.1072
▁mistaken	-12.1075
▁potions	-12.1077
▁donuts	-12.1081
▁eliminated	-12.1082
no	-12.1087
▁markets	-12.11
tg	-12.1103
▁variations	-12.1107
▁touched	-12.1111
▁inner	-12.1114
▁converted	-12.1114
▁complications	-12.1115
▁mixing	-12.1118
▁trailers	-12.1119
▁tri	-12.1119
▁bothering	-12.1123
▁aesthetics	-12.113
▁shoppers	-12.1131
▁wink	-12.1134
▁recogniz	-12.1136
▁medications	-12.1143
▁nose	-12.1155
▁impress	-12.1156
▁diy	-12.1158
▁discontinue	-12.1159
▁persons	-12.1165
▁metric	-12.1165
ver	-12.118
▁fianc	-12.118
▁decor	-12.1185
▁meow	-12.119
▁db	-12.1192
▁joe	-12.1197
▁compensation	-12.1197
▁duet	-12.1201
▁breast	-12.1202
▁carrot	-12.1206
▁supermarket	-12.1206
▁instructor	-12.1207
▁technique	-12.1207
▁paul	-12.1208
acy	-12.122
▁doo	-12.1225
▁roam	-12.123
▁traveler	-12.1236
▁pirate	-12.1236
▁slim	-12.1245
▁nyt	-12.1247
▁insomnia	-12.1252
▁bejeweled	-12.1253
▁mandatory	-12.1253
▁thursday	-12.1253
▁activation	-12.1253
▁monzo	-12.1253
▁hawaii	-12.1253
▁joystick	-12.1253
▁bidding	-12.1253
▁defence	-12.1253
▁prepaid	-12.1253
▁heartbeat	-12.1253
▁congrats	-12.1253
▁horrid	-12.1253
▁attitude	-12.1253
▁overwhelmed	-12.1254
▁viber	-12.1254
▁mutual	-12.1259
▁louder	-12.126
▁cpu	-12.1265
▁bh	-12.1267
▁freely	-12.1272
score	-12.1272
now	-12.1277
▁inactive	-12.1278
▁damaged	-12.1293
▁credited	-12.1297
▁pumping	-12.1305
▁ark	-12.1306
▁spiritual	-12.131
▁incorrectly	-12.1316
▁tricked	-12.132
pp	-12.1327
▁ple	-12.1333
▁deduct	-12.1335
▁sprint	-12.1337
▁roof	-12.1344
▁hall	-12.1348
▁analyze	-12.1358
▁blogs	-12.1382
ro	-12.1386
▁pp	-12.1388
work	-12.1391
▁cougar	-12.1392
down	-12.1399
▁fundamental	-12.1402
▁realtor	-12.1402
▁backward	-12.1407
ina	-12.1409
▁root	-12.1415
▁yt	-12.1418
▁gin	-12.1419
▁wreck	-12.1426
▁cw	-12.143
view	-12.1431
rk	-12.1434
car	-12.144
▁jar	-12.1446
▁swag	-12.1447
asyncresult	-12.1449
▁akinator	-12.1449
▁algebra	-12.1449
▁evidence	-12.1449
▁horrific	-12.1449
▁wednesday	-12.1449
▁hallmark	-12.1449
▁magnificent	-12.1449
▁remake	-12.1449
▁approximate	-12.1449
▁tidal	-12.1449
▁feb	-12.1449
▁fidelity	-12.1449
▁naked	-12.145
▁bedtime	-12.145
▁guard	-12.1451
▁toxic	-12.1456
▁rapidly	-12.1458
▁stalker	-12.1463
▁scream	-12.1467
▁medals	-12.1472
▁slugs	-12.1479
▁opera	-12.1479
▁ray	-12.148
▁tuned	-12.148
▁sep	-12.1487
ever	-12.1488
▁pub	-12.1494
▁captur	-12.1496
▁tablets	-12.1498
▁canon	-12.1518
▁tape	-12.1522
▁wh	-12.1525
▁gram	-12.1537
▁lep	-12.1538
▁closely	-12.1539
play	-12.1546
▁introduc	-12.1548
eeeeeeeeeeeeeeee	-12.1563
▁las	-12.1567
▁professionals	-12.1578
▁ops	-12.158
pay	-12.158
▁deposited	-12.1582
▁awesom	-12.1584
use	-12.1588
▁bp	-12.1599
▁cheer	-12.1599
▁rolled	-12.16
▁guardian	-12.16
▁throat	-12.1601
▁massage	-12.1601
▁senior	-12.1602
▁snack	-12.1603
▁voucher	-12.1603
▁invitation	-12.1603
▁brawl	-12.1604
▁withdrawal	-12.1605
▁correction	-12.1608
▁roller	-12.1616
▁bounc	-12.1618
▁walker	-12.1621
▁va	-12.1621
▁murder	-12.1623
care	-12.1628
▁copyright	-12.1635
▁dismiss	-12.1635
▁stitch	-12.1641
▁dialog	-12.1649
▁intelligence	-12.1649
▁msnbc	-12.1649
▁ourselves	-12.1649
▁taylor	-12.1649
▁optimum	-12.1649
▁hazard	-12.1649
▁washington	-12.1649
▁harsh	-12.1649
▁flipboard	-12.1649
▁remarkable	-12.1649
▁ovia	-12.1649
▁charity	-12.1649
▁spain	-12.1649
▁weatherbug	-12.1649
▁speechless	-12.1649
▁unfriendly	-12.165
▁fever	-12.165
▁optimised	-12.165
▁csr	-12.1651
▁adjustable	-12.1656
ities	-12.1658
▁deducted	-12.1661
▁lure	-12.1665
▁questionable	-12.1667
▁jeans	-12.1669
▁watches	-12.167
▁metro	-12.1675
▁bio	-12.1681
▁pearls	-12.1682
▁references	-12.1685
▁kong	-12.1689
▁handled	-12.1692
▁tutor	-12.1696
▁buzz	-12.1696
ring	-12.1701
▁dd	-12.1703
wise	-12.1708
▁bases	-12.171
▁accessed	-12.1713
▁presets	-12.1718
▁redownloading	-12.1726
▁grad	-12.1729
nk	-12.1731
ur	-12.1732
▁wines	-12.1734
▁incentives	-12.1734
▁redirects	-12.1744
▁pour	-12.1754
▁wishing	-12.1762
▁playability	-12.1764
ball	-12.1766
▁su	-12.1769
▁cells	-12.1773
▁lv	-12.1774
▁unlocks	-12.1782
▁aight	-12.1783
▁enlarge	-12.1787
▁litter	-12.1792
▁assassin	-12.1797
▁chocolate	-12.1802
et	-12.1804
▁indicator	-12.1807
▁banners	-12.1807
▁safely	-12.1815
▁abandon	-12.1816
▁trader	-12.1817
▁straw	-12.1818
▁networking	-12.182
▁asset	-12.1822
ious	-12.1824
ac	-12.1827
▁mary	-12.1837
▁gh	-12.184
▁masters	-12.1842
while	-12.1846
▁optimize	-12.1847
▁struggles	-12.185
ent	-12.1851
▁ancestry	-12.1853
▁captivating	-12.1853
▁circuit	-12.1853
▁consumption	-12.1853
▁html	-12.1853
▁mercari	-12.1853
▁rectify	-12.1853
▁peggle	-12.1853
▁kobo	-12.1853
▁wsj	-12.1853
▁cellphone	-12.1853
▁phoenix	-12.1853
▁necessity	-12.1853
▁yolo	-12.1853
▁scenery	-12.1854
▁msp	-12.1854
▁ellen	-12.1854
▁rover	-12.1855
▁afk	-12.1855
▁comparable	-12.1855
▁runtastic	-12.1856
bot	-12.1857
▁spells	-12.1858
▁listener	-12.1859
▁acorns	-12.1865
▁lapse	-12.1865
▁footy	-12.1866
▁eraser	-12.1873
▁ez	-12.1875
▁unfollowed	-12.1875
▁hyper	-12.1875
head	-12.1879
▁detected	-12.1888
▁accordingly	-12.1893
▁totals	-12.1898
▁titans	-12.1903
▁bow	-12.1908
▁crafted	-12.1909
▁dock	-12.1913
▁musicians	-12.1913
▁slip	-12.1915
▁worn	-12.192
▁expose	-12.1929
▁swinger	-12.1932
▁thick	-12.1946
▁jackpots	-12.1951
aries	-12.1954
▁souls	-12.1957
▁distract	-12.1968
▁permit	-12.1975
▁asia	-12.1975
▁grows	-12.198
▁pronounce	-12.1988
▁sisters	-12.2001
▁voicemail	-12.2014
▁helper	-12.2014
▁allowance	-12.2014
▁leap	-12.2015
▁prediction	-12.2016
▁agreement	-12.2016
▁restrict	-12.2025
▁professionally	-12.2037
▁satisfy	-12.2039
verse	-12.2042
weight	-12.2044
▁reject	-12.2048
▁tremendous	-12.205
▁elder	-12.2051
▁effortless	-12.2053
▁manipulate	-12.2058
▁inferior	-12.2061
▁laundr	-12.2061
▁toronto	-12.2061
▁unbeatable	-12.2061
▁overcome	-12.2061
▁swimming	-12.2061
▁unsuccessful	-12.2061
▁arriving	-12.2061
▁obsolete	-12.2061
▁ikea	-12.2061
▁index	-12.2061
▁charlie	-12.2061
▁hobby	-12.2061
▁intensity	-12.2061
▁evaluate	-12.2061
▁ladies	-12.2062
▁cmon	-12.2062
▁extraordinary	-12.2062
▁bakery	-12.2063
▁institution	-12.2064
▁lonely	-12.2064
▁fence	-12.2065
▁mecca	-12.2066
▁rng	-12.2066
▁gradually	-12.2066
▁guidelines	-12.2067
▁module	-12.2071
▁hoops	-12.2071
▁peeps	-12.2073
▁dm	-12.2079
▁christ	-12.2079
▁regenerate	-12.208
▁comp	-12.208
▁liars	-12.208
case	-12.2081
▁dank	-12.2085
▁laser	-12.2088
▁scenarios	-12.2096
▁enhancements	-12.2102
▁investors	-12.2102
▁mentally	-12.2105
▁dan	-12.211
▁riddle	-12.2114
▁summoning	-12.2121
▁advantages	-12.2124
▁pat	-12.2124
▁someday	-12.2126
▁worker	-12.213
ify	-12.2132
▁pigs	-12.2133
▁butter	-12.2137
spite	-12.2141
▁finest	-12.215
▁brushing	-12.2155
▁carrie	-12.2164
▁dh	-12.2175
▁jp	-12.2175
▁bottles	-12.2193
▁trackers	-12.2195
▁creat	-12.2198
▁hosts	-12.2204
▁van	-12.2205
▁rang	-12.2206
▁sore	-12.2207
▁pound	-12.2207
▁sucker	-12.2208
▁sw	-12.2218
▁mama	-12.222
▁favour	-12.2222
▁inspire	-12.2223
▁vibe	-12.2226
▁gadget	-12.2228
▁noob	-12.2234
▁tours	-12.2234
▁buff	-12.2237
▁depo	-12.2238
▁rentals	-12.2239
▁covering	-12.2243
▁dances	-12.2244
▁portions	-12.2249
▁kg	-12.225
▁fur	-12.2256
▁tire	-12.2256
▁shelf	-12.2259
▁rack	-12.2265
▁graphical	-12.2268
▁yum	-12.2271
▁construct	-12.2273
▁cheesy	-12.2274
▁fnaf	-12.2274
▁nifty	-12.2274
▁scruff	-12.2274
▁unintuitive	-12.2274
▁enormous	-12.2274
▁kabam	-12.2274
▁hoopla	-12.2274
▁dolphin	-12.2274
▁alpha	-12.2274
▁flashlight	-12.2274
▁marketplace	-12.2274
▁captain	-12.2274
▁efficiency	-12.2274
▁kroger	-12.2274
▁versa	-12.2274
▁array	-12.2274
▁dealership	-12.2274
▁himself	-12.2274
▁dependent	-12.2274
▁pastime	-12.2275
▁noticing	-12.2275
▁paris	-12.2275
▁complement	-12.2275
▁recolor	-12.2276
▁itinerary	-12.2276
▁chick	-12.2277
▁ctv	-12.2277
▁reflection	-12.2278
▁parks	-12.2287
▁specialist	-12.229
▁hiit	-12.2291
▁postcards	-12.2292
▁compelling	-12.2294
▁outright	-12.2297
▁published	-12.2298
▁om	-12.2302
gs	-12.2314
▁sue	-12.2317
▁ro	-12.2318
▁vouchers	-12.2323
▁moan	-12.2337
▁compliments	-12.2337
▁maintained	-12.2338
▁flick	-12.234
▁aiming	-12.2342
▁bpm	-12.2344
ham	-12.2347
▁rushed	-12.2351
▁bloom	-12.2359
▁trials	-12.2368
▁imac	-12.2368
▁vin	-12.2368
int	-12.2374
▁coaching	-12.2378
▁strikes	-12.2383
▁telegra	-12.2386
▁charming	-12.2391
▁tall	-12.2391
▁macy	-12.2393
▁communications	-12.2409
tic	-12.2412
▁researching	-12.2414
▁browsers	-12.2414
▁steel	-12.2415
▁drug	-12.2416
▁produces	-12.2421
▁indian	-12.2426
▁automate	-12.2428
▁prank	-12.243
▁minimalist	-12.2431
▁belong	-12.2431
lo	-12.2432
▁asos	-12.2432
▁gala	-12.2435
ise	-12.2436
▁textbook	-12.2438
▁pos	-12.244
▁rp	-12.2442
▁intention	-12.2444
▁psychic	-12.2445
▁lego	-12.2446
▁alex	-12.2469
▁filtered	-12.2476
▁refine	-12.2483
▁animate	-12.2484
▁tide	-12.2489
▁potato	-12.2489
▁advancing	-12.2491
▁bandwidth	-12.2491
▁bizarre	-12.2491
▁grandchildren	-12.2491
▁identification	-12.2491
▁woohoo	-12.2491
▁dissapointed	-12.2491
▁nissan	-12.2491
▁swift	-12.2491
▁gmat	-12.2492
▁emote	-12.2492
▁alice	-12.2492
▁birchbox	-12.2492
▁battling	-12.2492
▁crawl	-12.2492
▁hopper	-12.2493
▁mommy	-12.2493
▁documentation	-12.2493
▁crooks	-12.2494
▁sears	-12.2494
▁postage	-12.2495
▁batteries	-12.2495
▁earny	-12.2496
▁justice	-12.2497
▁intentionally	-12.2498
▁signup	-12.2498
▁uno	-12.2498
lee	-12.25
▁gut	-12.2501
▁employed	-12.2502
▁notifie	-12.2505
▁dl	-12.2505
▁bli	-12.2507
▁wast	-12.2531
▁lasts	-12.2531
▁components	-12.2533
▁lifting	-12.2534
▁explode	-12.254
▁dominate	-12.2545
▁tik	-12.2555
ong	-12.2568
▁angles	-12.2577
▁leaf	-12.2586
ak	-12.2586
▁hum	-12.2592
▁stumbl	-12.2594
▁sells	-12.2596
▁mindful	-12.2608
▁margin	-12.2612
▁charting	-12.2614
▁downs	-12.2635
▁gag	-12.2636
▁paths	-12.2638
ooooooooooooooo	-12.2646
▁wot	-12.2647
▁soup	-12.265
pop	-12.2656
▁sham	-12.2657
▁pyramid	-12.2658
▁bite	-12.2659
▁greek	-12.2661
▁motor	-12.2661
ir	-12.2665
▁tamagotchi	-12.2666
▁roommate	-12.2667
▁concert	-12.2667
▁geek	-12.267
▁winners	-12.2672
ence	-12.2678
sis	-12.2685
▁qualify	-12.269
▁tiers	-12.2692
▁tsum	-12.2693
op	-12.2698
▁personalise	-12.2699
▁consecutive	-12.2702
paper	-12.2705
▁adequate	-12.2705
▁behaviour	-12.2713
▁instacart	-12.2713
▁spouse	-12.2713
▁zillow	-12.2713
▁caribou	-12.2713
▁identical	-12.2713
▁unbias	-12.2713
▁emerald	-12.2713
▁kevin	-12.2713
▁smartthings	-12.2713
▁reputation	-12.2714
▁persistent	-12.2714
▁rotating	-12.2714
▁cursor	-12.2714
▁worldwide	-12.2714
▁vitality	-12.2714
▁distinguish	-12.2714
▁runkeeper	-12.2714
▁ambien	-12.2714
▁investigation	-12.2715
▁embarrassed	-12.2715
▁european	-12.2715
▁hover	-12.2715
▁england	-12.2715
▁complexity	-12.2715
▁fold	-12.2715
▁naughty	-12.2715
▁reduc	-12.2716
▁invasive	-12.2719
▁coaches	-12.2722
▁duels	-12.2725
▁poly	-12.2726
▁downtime	-12.2728
▁begun	-12.2728
▁rogers	-12.2729
▁thrilling	-12.2731
▁mixer	-12.2732
▁si	-12.2738
hh	-12.2738
▁screaming	-12.2739
▁danger	-12.274
▁triggered	-12.2745
▁ebooks	-12.2756
▁affected	-12.2758
▁hinder	-12.2759
▁ammo	-12.276
▁spa	-12.2771
▁anz	-12.2771
▁strip	-12.2771
mi	-12.2772
▁hating	-12.2772
▁incompetent	-12.2774
tion	-12.2777
▁carriers	-12.2779
▁tweets	-12.2781
▁musically	-12.2787
▁columns	-12.2788
▁ram	-12.2794
ks	-12.28
▁riders	-12.2802
▁raids	-12.2813
▁catchy	-12.2816
▁beers	-12.2826
▁forex	-12.2826
▁legs	-12.2828
▁ge	-12.2836
om	-12.2846
▁inquir	-12.2847
▁stylist	-12.2865
▁draining	-12.2877
▁kits	-12.288
▁binge	-12.2891
▁hotspot	-12.2893
bage	-12.2895
▁macro	-12.2895
▁raining	-12.2896
if	-12.2896
▁restor	-12.29
▁suggesting	-12.2904
▁clouds	-12.2912
▁je	-12.2916
▁tha	-12.2921
▁emotional	-12.293
▁ehhh	-12.2932
▁denis	-12.2939
▁gentle	-12.2941
▁vocab	-12.2941
▁abysmal	-12.2941
▁diablo	-12.2941
▁nephew	-12.2941
▁inevitabl	-12.2941
▁meditating	-12.2941
▁vodafone	-12.2941
▁operator	-12.2941
▁analytics	-12.2941
▁moviepass	-12.2941
▁unethical	-12.2941
▁xmas	-12.2941
▁importance	-12.2941
▁predator	-12.2941
▁admitted	-12.2941
▁illustration	-12.2941
▁neck	-12.2942
▁yummly	-12.2942
ka	-12.2943
▁tempted	-12.2943
▁predictable	-12.2947
▁quirks	-12.2948
▁rethink	-12.2949
▁religiously	-12.2949
▁simpsons	-12.2951
▁delux	-12.2953
▁disturbing	-12.2953
▁flashcard	-12.2953
▁fl	-12.2955
▁deny	-12.2957
▁subs	-12.2958
▁leaning	-12.2958
▁hairstyles	-12.2962
▁guessed	-12.2965
right	-12.2966
▁highway	-12.2967
▁cues	-12.2969
▁fortunate	-12.2971
▁ramp	-12.2976
▁freaked	-12.2986
▁psychics	-12.2989
ex	-12.299
▁encouraged	-12.299
▁authorize	-12.2996
▁surfing	-12.2998
▁barn	-12.3001
▁compensate	-12.3004
▁watchers	-12.3013
▁youtubers	-12.3035
▁caps	-12.304
▁pads	-12.3052
lying	-12.3052
▁jokes	-12.3077
▁hm	-12.3078
▁angel	-12.3086
ligible	-12.309
▁wayyy	-12.3094
▁prompting	-12.3098
▁influence	-12.3098
▁shoebox	-12.3101
▁attract	-12.3107
▁incident	-12.3114
▁wether	-12.3115
▁aids	-12.3117
▁perception	-12.3118
▁mm	-12.312
▁muslim	-12.3127
▁recipient	-12.3127
▁jewel	-12.3127
▁survivor	-12.3127
▁dinosaur	-12.3127
▁hacks	-12.3129
▁singer	-12.3133
▁lion	-12.3136
▁madden	-12.3151
▁diff	-12.3154
▁rapid	-12.3162
▁sc	-12.3171
▁nuisance	-12.3173
▁paradise	-12.3173
▁revisit	-12.3173
▁grasp	-12.3173
▁chegg	-12.3173
▁retirement	-12.3173
▁nanny	-12.3174
▁airmail	-12.3174
▁customisable	-12.3174
▁haunt	-12.3174
▁marvelous	-12.3174
▁iraq	-12.3175
▁bo	-12.3175
▁territory	-12.3175
▁childish	-12.3176
▁dining	-12.3177
▁jail	-12.3179
▁comedy	-12.318
▁constellations	-12.318
▁errands	-12.318
▁academy	-12.3181
▁mbps	-12.3181
ology	-12.3181
▁watchlist	-12.3182
▁avoided	-12.3182
▁emma	-12.3187
▁painless	-12.3188
▁pong	-12.319
▁converter	-12.3201
▁lectures	-12.3204
▁organizer	-12.3205
ging	-12.3207
▁enhanced	-12.3208
▁tails	-12.3216
▁decades	-12.3216
▁txt	-12.3217
▁ka	-12.3219
▁combin	-12.3228
▁lighter	-12.3229
▁stretching	-12.3231
▁kindly	-12.3233
▁dread	-12.3234
liness	-12.3239
▁expanded	-12.3244
▁conveniently	-12.3245
side	-12.3246
▁tix	-12.3259
▁brains	-12.3262
▁honesty	-12.3263
▁targets	-12.3264
li	-12.3286
▁ep	-12.3293
moji	-12.3298
ette	-12.3323
son	-12.334
▁dat	-12.3344
ery	-12.3349
▁rankings	-12.3349
▁replac	-12.3352
gh	-12.3354
▁nat	-12.3354
▁ni	-12.3358
▁pixels	-12.3359
▁desert	-12.3359
▁belief	-12.3363
▁niece	-12.3364
▁component	-12.3365
▁champion	-12.3365
▁cheque	-12.3366
▁singles	-12.3366
▁shortcut	-12.3366
▁enhancement	-12.3366
▁investor	-12.3367
▁previews	-12.337
▁mailbox	-12.3379
▁poster	-12.338
▁kiss	-12.3387
▁determin	-12.3387
▁unwind	-12.3388
▁shock	-12.3389
▁delight	-12.3394
▁waaaay	-12.3399
▁racer	-12.3399
uu	-12.3403
girl	-12.3404
▁bulk	-12.3404
house	-12.3406
ells	-12.3411
▁monopoly	-12.3411
▁sydney	-12.3411
▁mashallah	-12.3411
▁appreciation	-12.3411
▁foursquare	-12.3411
▁equalizer	-12.3411
▁tunnel	-12.3411
▁courteous	-12.3411
▁enroll	-12.3412
▁furious	-12.3412
▁pedal	-12.3412
▁hdmi	-12.3412
▁wisdom	-12.3412
▁thunder	-12.3412
▁headspace	-12.3412
▁journalism	-12.3412
▁labor	-12.3412
▁batman	-12.3412
▁portugues	-12.3412
▁sanity	-12.3412
▁valley	-12.3412
▁vector	-12.3413
▁categorize	-12.3413
▁salad	-12.3413
▁organisation	-12.3413
▁astonishing	-12.3415
▁burner	-12.3417
▁invented	-12.3417
▁spammers	-12.3419
turned	-12.3419
▁storms	-12.342
▁replays	-12.342
▁merchandise	-12.3422
▁sponsored	-12.3423
▁snoop	-12.3424
▁vibrate	-12.3425
▁conference	-12.3426
▁manageable	-12.3427
▁hood	-12.3427
▁sleeper	-12.3428
▁captures	-12.3429
▁spade	-12.3429
▁tiger	-12.343
▁soldiers	-12.343
▁starz	-12.343
▁hous	-12.343
▁fargo	-12.3435
▁ether	-12.3443
▁merged	-12.3443
▁watermarks	-12.3445
▁trolls	-12.3446
▁rivals	-12.3447
▁rig	-12.3453
▁crates	-12.3456
▁lotto	-12.3459
astic	-12.3463
▁usefulness	-12.3465
iest	-12.3475
▁learners	-12.3478
▁lily	-12.3481
▁cb	-12.3483
▁concerning	-12.3485
dd	-12.3493
▁surge	-12.3494
volut	-12.3501
▁ketchap	-12.3507
▁regions	-12.351
▁vpns	-12.3512
▁photograph	-12.3517
▁contests	-12.3526
▁ceo	-12.3534
▁eq	-12.3534
di	-12.3535
les	-12.3536
▁beep	-12.3539
▁qa	-12.354
▁thanx	-12.3541
▁renting	-12.3541
▁tooth	-12.3542
▁grip	-12.3543
▁doubled	-12.3544
▁lands	-12.3549
▁creations	-12.3551
▁measures	-12.3552
▁destinations	-12.3588
▁ali	-12.3592
▁fin	-12.3594
▁enthusiast	-12.3595
▁itouch	-12.3599
ctic	-12.36
▁scum	-12.3602
hold	-12.3603
▁drown	-12.3607
▁eff	-12.3613
▁taco	-12.3626
meter	-12.3633
▁specifi	-12.364
▁compell	-12.3641
▁replenish	-12.3641
▁sharpen	-12.3645
▁quid	-12.3649
finished	-12.3649
▁bark	-12.3653
zzard	-12.3655
▁luxury	-12.3655
▁mechanism	-12.3655
▁reappear	-12.3655
▁supervisor	-12.3655
▁nclex	-12.3655
▁revamp	-12.3655
▁provoking	-12.3655
▁gucci	-12.3655
▁luggage	-12.3655
▁lawyer	-12.3655
▁hyperlink	-12.3655
▁coinbase	-12.3655
▁godzilla	-12.3655
▁trophy	-12.3655
▁imvu	-12.3656
▁consult	-12.3656
▁agency	-12.3656
▁fond	-12.3657
▁township	-12.3657
▁flickr	-12.3657
▁reduction	-12.3657
▁rabbit	-12.3657
▁lifelock	-12.3657
▁representation	-12.3657
▁grandkids	-12.3657
▁inefficient	-12.3658
▁slightest	-12.3658
▁basement	-12.3659
▁increments	-12.3659
▁stairs	-12.366
▁diner	-12.3661
▁priceline	-12.3663
▁tailored	-12.3663
▁deactivated	-12.3663
▁hail	-12.3664
▁fame	-12.3664
▁beef	-12.3666
▁overcast	-12.3669
▁parameters	-12.367
▁archer	-12.3672
▁subtract	-12.3674
▁peanuts	-12.3678
▁es	-12.3679
▁judg	-12.368
▁scrap	-12.3685
▁recognised	-12.3688
▁frustrates	-12.3689
▁ph	-12.3689
▁kink	-12.3692
▁vendors	-12.3697
ji	-12.3697
▁teenagers	-12.3698
▁loveeee	-12.371
▁deer	-12.371
▁thumbnails	-12.3717
▁texture	-12.3717
▁mcdonalds	-12.3718
▁rainy	-12.3718
▁oddly	-12.3722
▁performing	-12.3724
▁reopened	-12.3725
▁pw	-12.3726
▁passengers	-12.3732
▁bargains	-12.3734
▁photographers	-12.3737
roll	-12.3739
den	-12.3749
tz	-12.3758
▁landed	-12.3765
▁toss	-12.3769
▁canva	-12.3769
▁mar	-12.3775
▁doll	-12.3777
▁lb	-12.3781
ford	-12.3782
▁sneak	-12.3783
▁pitcher	-12.3784
▁ow	-12.3787
▁bundles	-12.3789
▁reconsider	-12.3791
▁sm	-12.3801
▁divide	-12.381
▁snaps	-12.3819
▁arts	-12.3824
finity	-12.3827
just	-12.3829
▁trained	-12.3829
ile	-12.3831
▁iaps	-12.384
▁promos	-12.3843
▁crops	-12.3852
▁theatre	-12.3853
▁mortgage	-12.3855
▁pt	-12.3857
▁crate	-12.3859
▁decade	-12.3859
▁audiobook	-12.3861
▁auction	-12.3862
▁goooood	-12.3862
▁ebook	-12.3862
▁indoor	-12.3864
▁tribe	-12.3864
▁studios	-12.3868
▁dunkin	-12.3881
▁slash	-12.3884
▁confuse	-12.3897
▁fares	-12.3898
▁investigate	-12.3899
▁gamble	-12.3904
▁lp	-12.3904
▁incompatible	-12.3905
▁marriage	-12.3905
▁sygic	-12.3905
▁chicago	-12.3905
▁conquer	-12.3905
▁mandarin	-12.3905
▁suspense	-12.3905
▁wishbone	-12.3905
▁disorder	-12.3905
▁population	-12.3905
▁ameerah	-12.3905
▁gaia	-12.3905
▁occupy	-12.3905
▁evolving	-12.3906
▁boggle	-12.3906
▁mainstream	-12.3906
▁spinner	-12.3906
▁foul	-12.3906
▁crave	-12.3906
▁bloated	-12.3907
▁smith	-12.3907
▁whirl	-12.3907
▁macos	-12.3907
▁fleet	-12.3908
▁baking	-12.3909
▁wonky	-12.391
▁valentine	-12.3911
▁casinos	-12.3912
▁paperless	-12.3912
▁crm	-12.3913
▁imma	-12.3916
▁hehe	-12.3916
▁spammed	-12.3918
▁jeff	-12.3919
▁marco	-12.392
▁fireworks	-12.3923
blew	-12.3926
▁loser	-12.3927
▁twin	-12.3929
▁launches	-12.3929
▁lee	-12.3932
▁calculated	-12.3933
▁jim	-12.394
▁mls	-12.3946
▁wan	-12.3947
▁chronic	-12.3957
▁remix	-12.3959
▁sa	-12.3964
▁outline	-12.3965
▁knots	-12.3971
ctively	-12.3973
ship	-12.3978
pooky	-12.398
▁meters	-12.3982
▁har	-12.399
▁researched	-12.4001
▁arent	-12.4009
pro	-12.4015
▁spreadsheets	-12.4026
▁ju	-12.4029
▁downcast	-12.4032
▁apartments	-12.4037
link	-12.4041
▁tee	-12.4042
▁contracts	-12.4064
▁vibran	-12.4072
▁les	-12.4081
free	-12.41
▁seasonal	-12.4102
▁bbb	-12.4108
ri	-12.4112
▁joint	-12.4112
▁flavor	-12.4114
▁segment	-12.4115
▁nerve	-12.4116
▁hound	-12.4123
▁jot	-12.4123
▁yah	-12.4124
▁prepar	-12.4124
▁synchronize	-12.413
▁whoa	-12.4131
▁bolt	-12.4135
▁tail	-12.4145
▁vine	-12.4152
setting	-12.4154
▁aw	-12.416
▁deaf	-12.4161
▁relatives	-12.4161
▁clickbait	-12.4162
▁explanatory	-12.4162
▁glaring	-12.4162
▁sausage	-12.4162
▁zynga	-12.4162
▁museum	-12.4162
▁stadium	-12.4162
▁curiosity	-12.4162
▁dunno	-12.4162
▁modified	-12.4162
▁unused	-12.4162
▁entune	-12.4162
▁speedometer	-12.4162
▁existence	-12.4162
▁overdraft	-12.4162
▁ladder	-12.4162
▁battlefield	-12.4162
▁emily	-12.4163
▁considerably	-12.4163
▁void	-12.4163
▁autism	-12.4165
▁fluent	-12.4166
▁stretches	-12.4167
▁bloons	-12.4168
▁revolut	-12.4169
▁madness	-12.417
▁solves	-12.417
▁astounding	-12.4171
▁carried	-12.4174
aly	-12.4175
▁simon	-12.4178
▁hyped	-12.4181
▁turo	-12.4182
▁nc	-12.4186
▁amazin	-12.4186
▁musi	-12.4191
▁vanish	-12.4192
▁rei	-12.4195
▁grammarly	-12.4196
▁rave	-12.4196
▁rebuild	-12.4197
▁learner	-12.42
▁helpfull	-12.4204
▁turtles	-12.4207
▁du	-12.4207
▁ticking	-12.4208
▁tribes	-12.4209
▁frank	-12.421
▁spamm	-12.4212
▁moron	-12.4213
▁survivors	-12.4213
ollywood	-12.4214
▁tsn	-12.4217
▁gadgets	-12.4218
▁perk	-12.4219
▁patiently	-12.4219
▁posters	-12.4226
▁hh	-12.4238
iness	-12.4239
▁listeners	-12.424
▁widgets	-12.4241
▁shy	-12.4242
▁dim	-12.4247
▁rarit	-12.4258
▁operations	-12.4263
▁exams	-12.4265
ca	-12.4271
ville	-12.4272
▁asf	-12.4274
▁batch	-12.4297
eee	-12.43
▁cu	-12.4302
led	-12.4309
▁filed	-12.4321
▁billions	-12.4322
▁po	-12.4334
▁feedly	-12.4337
▁norm	-12.4342
▁alliances	-12.4343
▁resemble	-12.4349
▁bon	-12.4351
▁vi	-12.4358
▁logins	-12.4367
▁hesitation	-12.437
▁configuration	-12.4376
▁veteran	-12.4378
▁turtle	-12.4379
▁stroke	-12.4379
▁teenager	-12.438
▁measurement	-12.438
▁brake	-12.438
▁coaster	-12.4381
▁citi	-12.4381
▁hammer	-12.4383
▁lookup	-12.4394
ian	-12.4396
▁aisle	-12.4399
helf	-12.4401
▁employ	-12.441
▁oct	-12.4416
▁chew	-12.4423
▁exploit	-12.4424
▁accompany	-12.4425
▁ancient	-12.4425
▁chipotle	-12.4425
▁gooooood	-12.4425
▁retrica	-12.4425
▁robokiller	-12.4425
▁versatility	-12.4425
▁commission	-12.4425
▁explicit	-12.4425
▁pedometer	-12.4425
▁regain	-12.4425
▁precision	-12.4425
▁presence	-12.4425
▁ebates	-12.4425
▁quora	-12.4425
▁fifteen	-12.4425
▁libraries	-12.4425
▁rugby	-12.4425
▁dashlane	-12.4425
▁discipline	-12.4425
▁integrity	-12.4425
▁loooove	-12.4425
▁shabby	-12.4425
▁grandpa	-12.4425
▁yubo	-12.4425
▁variable	-12.4425
▁mexico	-12.4425
▁quizlet	-12.4425
▁dramatically	-12.4425
▁doordash	-12.4425
▁elevate	-12.4425
▁salary	-12.4425
▁reluctant	-12.4425
▁eagle	-12.4425
▁npc	-12.4426
▁deliveroo	-12.4426
▁fusion	-12.4426
▁flies	-12.4426
▁biking	-12.4427
▁rtr	-12.4427
▁tunein	-12.4428
▁fertil	-12.4428
▁flo	-12.4428
▁hunger	-12.4428
▁deadline	-12.4428
▁campus	-12.4429
▁downtown	-12.443
▁est	-12.4431
▁siblings	-12.4433
▁refined	-12.4435
▁aloud	-12.4444
▁goodrx	-12.4445
▁ta	-12.4445
▁balloons	-12.4446
▁fitting	-12.4448
▁filing	-12.4448
▁tactical	-12.4449
▁indicated	-12.4449
▁persists	-12.445
ave	-12.4451
▁crowded	-12.4451
▁reserved	-12.4452
▁interior	-12.4453
▁mount	-12.4453
▁ifunny	-12.4455
▁applies	-12.4459
▁dudes	-12.4459
▁achieved	-12.4463
▁coded	-12.4474
▁photographs	-12.4475
▁corners	-12.4476
▁fantastically	-12.4477
▁excelente	-12.4481
▁detract	-12.4482
▁coat	-12.4488
▁flags	-12.4489
tan	-12.4491
▁officer	-12.4495
▁cooked	-12.45
▁ibooks	-12.4507
▁reactions	-12.4508
▁mock	-12.4514
▁mums	-12.4515
ze	-12.4517
don	-12.4518
▁laughed	-12.4524
▁burning	-12.4527
▁traps	-12.453
ode	-12.4536
▁scramble	-12.4537
▁luna	-12.4538
▁tears	-12.4539
core	-12.4542
▁cousins	-12.4544
▁loans	-12.4545
potty	-12.4551
ripping	-12.4554
▁peter	-12.4556
▁hily	-12.4566
▁hunters	-12.4569
sa	-12.4579
▁curl	-12.4582
ten	-12.4585
bar	-12.4587
▁wrap	-12.4596
▁plots	-12.4597
ler	-12.4597
liding	-12.4599
▁standings	-12.4623
un	-12.4628
▁twists	-12.463
▁sponsor	-12.4635
▁ki	-12.464
▁innovation	-12.4647
▁hurricane	-12.4648
▁accomplishment	-12.4649
▁headed	-12.4649
▁vendor	-12.4649
▁supplier	-12.4649
▁bulb	-12.4649
▁attachment	-12.4649
▁alway	-12.465
▁shipment	-12.465
▁nerd	-12.4651
▁limitation	-12.4653
▁iran	-12.4653
▁fatal	-12.4654
▁meta	-12.4654
▁dojo	-12.4661
▁jur	-12.4668
▁bind	-12.4668
ay	-12.4669
▁whit	-12.4676
▁destroys	-12.4678
▁faced	-12.4686
▁pomodoro	-12.4695
▁ubisoft	-12.4695
▁vudu	-12.4695
▁wikipedia	-12.4695
▁yahtzee	-12.4695
▁kotor	-12.4695
▁zinio	-12.4695
▁chemistry	-12.4695
▁nonexistent	-12.4695
▁unsatisfied	-12.4695
▁censorship	-12.4695
▁emblem	-12.4695
▁applicable	-12.4695
▁summaries	-12.4695
▁hostage	-12.4696
▁calculating	-12.4696
▁unsafe	-12.4696
▁khan	-12.4696
▁enterprise	-12.4696
▁norton	-12.4697
▁bullies	-12.4697
▁skinny	-12.4697
▁drunk	-12.4698
▁foe	-12.4699
ul	-12.4699
▁resend	-12.47
▁marry	-12.47
▁daylight	-12.47
▁stale	-12.4701
escape	-12.4701
▁lap	-12.4702
▁knuckles	-12.4705
▁workaround	-12.4705
▁workshop	-12.4707
▁configured	-12.4712
▁prestige	-12.4713
▁identifi	-12.4717
▁darts	-12.4717
▁rome	-12.4718
▁talented	-12.4719
art	-12.4724
▁stalls	-12.4725
▁promoted	-12.4726
▁cus	-12.4728
day	-12.4733
▁dunk	-12.4738
▁compares	-12.4741
▁gm	-12.4743
▁textures	-12.4748
▁gains	-12.4749
▁tr	-12.475
▁naturally	-12.4751
▁losers	-12.4759
end	-12.4763
▁spit	-12.4766
▁downsides	-12.4774
▁nov	-12.4775
▁hatchi	-12.4778
top	-12.4779
▁res	-12.4783
▁ttc	-12.4792
▁progresses	-12.4803
▁distractions	-12.4816
▁bullets	-12.4816
▁leaders	-12.4817
edge	-12.4823
▁tease	-12.4823
off	-12.4826
▁nails	-12.4827
▁whales	-12.4861
▁soda	-12.4863
ok	-12.4865
▁coloured	-12.4867
ron	-12.4869
▁favs	-12.487
rging	-12.4872
▁marine	-12.4882
▁robo	-12.4883
▁wf	-12.4888
▁pearl	-12.4894
▁fil	-12.4916
za	-12.4926
▁hal	-12.4927
▁scenario	-12.4927
▁creature	-12.4927
▁mat	-12.4931
▁identifie	-12.4931
▁expectation	-12.4933
ow	-12.494
▁faction	-12.4943
▁aps	-12.4943
▁lease	-12.4944
▁blaze	-12.4958
▁leisure	-12.496
▁literal	-12.4963
▁assure	-12.4967
▁sooooooooo	-12.4968
▁africa	-12.497
▁xoxo	-12.4972
▁olive	-12.4973
▁bethesda	-12.4973
▁injustice	-12.4973
▁kinemaster	-12.4973
▁spongebob	-12.4973
▁therapeutic	-12.4973
▁camwow	-12.4973
▁embarrassment	-12.4973
▁campground	-12.4973
▁miserable	-12.4973
▁pricy	-12.4973
▁yield	-12.4973
▁query	-12.4973
▁sensible	-12.4973
▁participating	-12.4974
▁unreasonable	-12.4974
▁duper	-12.4974
▁judgement	-12.4974
▁elementary	-12.4974
▁luxy	-12.4974
▁lemon	-12.4974
▁transportation	-12.4974
▁multiplier	-12.4974
▁songza	-12.4974
▁whack	-12.4974
▁guilty	-12.4975
▁rummy	-12.4975
▁respawn	-12.4976
▁wwf	-12.4976
▁meantime	-12.4978
▁definate	-12.4978
▁circumstances	-12.4979
▁override	-12.4979
▁deliberate	-12.4981
▁baked	-12.4982
▁peril	-12.4983
▁kiddos	-12.4984
▁grill	-12.4984
▁awaiting	-12.4985
▁logout	-12.4986
▁floating	-12.4987
▁hangouts	-12.4989
▁memri	-12.4989
▁et	-12.4993
▁briefly	-12.4993
▁curse	-12.4994
▁geez	-12.4996
▁incorporated	-12.4997
▁geofenc	-12.4997
▁germany	-12.4998
▁idiotic	-12.5002
▁lean	-12.5003
▁contractors	-12.5006
▁insulting	-12.5007
▁nit	-12.5023
▁vibes	-12.5034
▁snacks	-12.5038
▁metrics	-12.5041
▁au	-12.5043
▁complains	-12.5061
▁wishes	-12.5061
▁spoiler	-12.5061
▁mirroring	-12.5064
▁scares	-12.5066
▁nu	-12.5079
▁scriptures	-12.5088
▁fund	-12.5098
▁fools	-12.51
▁frustrations	-12.5104
▁estimates	-12.5107
▁tubi	-12.5108
▁mars	-12.512
▁nut	-12.5125
▁sounding	-12.5127
▁factors	-12.5139
▁structures	-12.5141
▁princess	-12.5148
▁permissions	-12.5152
cha	-12.5155
▁frickin	-12.5164
▁thrill	-12.5169
putting	-12.5171
▁progressed	-12.519
▁pes	-12.5191
▁cease	-12.5193
▁scar	-12.5199
▁dawn	-12.5202
tc	-12.5207
▁equip	-12.5212
▁owning	-12.522
bi	-12.5229
▁fires	-12.5234
▁cams	-12.5235
▁surround	-12.5236
▁wander	-12.5239
▁stereo	-12.5241
tiles	-12.5245
▁harm	-12.5248
▁memberships	-12.525
held	-12.5254
▁disagree	-12.5256
▁boa	-12.5257
▁hypno	-12.5258
▁enabling	-12.5259
▁fork	-12.5259
▁hybrid	-12.5259
▁impaired	-12.5259
▁essence	-12.5259
▁excellence	-12.5259
▁fortnight	-12.5259
▁substance	-12.5259
▁achieving	-12.5259
▁pacific	-12.5259
▁underwhelming	-12.5259
▁semester	-12.5259
▁despicable	-12.5259
▁millionaire	-12.5259
▁karaoke	-12.5259
▁triangle	-12.5259
▁coordination	-12.5259
▁xoom	-12.5259
▁retarded	-12.5259
▁sloppy	-12.5259
▁rising	-12.5259
▁producing	-12.5259
▁rebate	-12.5259
▁trapped	-12.526
▁joking	-12.5261
▁jungle	-12.5261
▁intrigued	-12.5261
▁hangman	-12.5261
▁african	-12.5261
▁headset	-12.5261
▁ryan	-12.5261
▁homepage	-12.5262
▁sexist	-12.5264
▁mvc	-12.5265
▁fiends	-12.5265
▁embedd	-12.5265
▁champ	-12.5266
▁laughable	-12.5266
▁assured	-12.5267
▁violate	-12.5268
lot	-12.5269
▁thred	-12.5269
▁minuets	-12.5271
▁wonka	-12.5272
▁elderly	-12.5274
▁rumors	-12.5275
▁spite	-12.528
▁fuzz	-12.5281
▁treats	-12.5284
▁darker	-12.5285
▁actors	-12.5285
▁regional	-12.529
▁fist	-12.5292
▁muted	-12.5299
▁strains	-12.5299
▁funding	-12.5303
▁hired	-12.5305
▁creeps	-12.5305
▁performed	-12.5306
▁resign	-12.5306
▁segments	-12.5311
▁behold	-12.5317
▁modem	-12.5323
▁apologize	-12.5325
▁mobil	-12.5339
▁rev	-12.5342
clusive	-12.5348
▁outlets	-12.5349
▁truthful	-12.5349
▁notebooks	-12.5362
boy	-12.5363
▁signatures	-12.5367
▁programmes	-12.5368
▁gaps	-12.5368
▁curate	-12.537
▁expires	-12.5371
ku	-12.5378
▁bids	-12.5379
▁latin	-12.5381
▁meanings	-12.5381
▁creep	-12.5386
▁bigg	-12.5388
▁replying	-12.539
▁gar	-12.539
▁aye	-12.5391
▁bees	-12.5398
▁hills	-12.5404
▁kingdoms	-12.5406
▁jr	-12.5411
▁looses	-12.5416
▁ssr	-12.5419
▁bros	-12.542
▁deff	-12.5426
▁cope	-12.5433
▁goodies	-12.5435
▁shoulder	-12.5436
▁yas	-12.5441
pl	-12.5444
▁sup	-12.5445
▁fe	-12.5446
▁char	-12.5448
▁warriors	-12.545
▁laws	-12.545
▁fairy	-12.5461
▁refills	-12.5465
ought	-12.5469
assic	-12.5471
▁clo	-12.5477
▁moral	-12.5485
▁pee	-12.5494
▁narrative	-12.55
ess	-12.5503
▁vibration	-12.5506
▁burst	-12.5507
▁lyric	-12.5507
▁sitter	-12.5509
▁mob	-12.552
▁asana	-12.5522
▁mana	-12.5523
▁vh	-12.5531
smart	-12.5538
▁pizzas	-12.5538
▁substantial	-12.5541
ith	-12.5545
bility	-12.5546
proof	-12.5548
books	-12.555
▁accommodate	-12.5553
▁albeit	-12.5553
▁asphalt	-12.5553
▁craigslist	-12.5553
▁monotonous	-12.5553
▁stomach	-12.5553
▁unauthorized	-12.5553
▁vegetarian	-12.5553
▁shutterfly	-12.5553
▁toothbrush	-12.5553
▁facilities	-12.5553
▁garageband	-12.5553
▁kewl	-12.5553
▁warehouse	-12.5553
▁austin	-12.5553
▁chief	-12.5553
▁disgraceful	-12.5553
▁payee	-12.5553
▁collaboration	-12.5553
▁jango	-12.5553
▁vlc	-12.5553
▁wrist	-12.5553
▁kickstarter	-12.5553
▁george	-12.5553
▁surfline	-12.5553
▁sided	-12.5553
▁donald	-12.5553
▁hydrated	-12.5554
▁backpack	-12.5554
▁paperwork	-12.5554
▁gateway	-12.5554
▁intermediate	-12.5554
▁dlc	-12.5555
▁fetch	-12.5556
▁manufacturer	-12.5557
▁frill	-12.5557
▁sarah	-12.5557
▁coco	-12.5558
▁lenses	-12.5559
▁coworkers	-12.5559
▁ocd	-12.556
▁lawn	-12.5561
▁twins	-12.5565
▁rally	-12.5565
▁beforehand	-12.5566
▁brighten	-12.5568
▁defined	-12.5568
▁consumed	-12.5569
▁vanished	-12.5569
▁scratchers	-12.5577
▁replaces	-12.5579
ncy	-12.558
▁toppings	-12.5582
gg	-12.5586
▁flu	-12.5593
▁cha	-12.5595
▁fighters	-12.5597
▁pumped	-12.56
▁api	-12.5602
▁euro	-12.5609
its	-12.5613
▁spike	-12.5616
omania	-12.5622
▁corrections	-12.5623
▁mags	-12.5629
▁flashy	-12.5629
▁outdoors	-12.5631
▁beds	-12.5633
▁buffers	-12.5635
ike	-12.5639
▁quad	-12.564
▁timetables	-12.5649
▁issued	-12.5655
▁strings	-12.5655
▁cartoons	-12.566
▁whin	-12.5662
▁ticks	-12.5663
▁gigs	-12.5666
▁evan	-12.5686
▁dub	-12.5689
▁centered	-12.5696
▁fre	-12.5696
ard	-12.5706
ical	-12.5712
ez	-12.5717
▁headaches	-12.572
▁hv	-12.572
▁yee	-12.5722
▁ffs	-12.5726
ations	-12.5728
ggy	-12.573
▁ima	-12.5739
▁rights	-12.5759
▁para	-12.5761
▁percentages	-12.5766
▁floors	-12.5769
▁hoo	-12.577
▁accelerate	-12.5771
▁rat	-12.5771
▁volt	-12.5772
▁malfunction	-12.5786
ised	-12.5787
▁slug	-12.5788
▁wunder	-12.5788
▁ti	-12.5792
tt	-12.58
▁utiliz	-12.5802
▁principle	-12.5809
▁chunk	-12.581
▁wii	-12.5812
▁programmer	-12.5814
▁collector	-12.5814
▁grader	-12.5819
phone	-12.5819
▁xxxx	-12.5827
▁wb	-12.5828
▁differentiate	-12.584
▁lg	-12.5841
▁whip	-12.5842
▁splendid	-12.5843
▁religious	-12.5845
pa	-12.5848
world	-12.585
▁stimulate	-12.5851
▁coop	-12.5854
▁abbdulshaibi	-12.5856
▁dubsmash	-12.5856
▁elevator	-12.5856
▁nevertheless	-12.5856
▁subsequent	-12.5856
▁unfamiliar	-12.5856
▁offense	-12.5856
▁platinum	-12.5856
▁turkey	-12.5856
▁radius	-12.5856
▁transparency	-12.5856
▁simplify	-12.5856
▁innocent	-12.5856
▁stood	-12.5856
▁poison	-12.5856
▁mmorpg	-12.5856
▁skull	-12.5856
▁depressed	-12.5856
▁astronomy	-12.5856
▁cytus	-12.5857
▁earbuds	-12.5857
▁philippines	-12.5858
▁jake	-12.5858
▁capsule	-12.5858
▁ufc	-12.5859
mon	-12.586
▁viruses	-12.5861
▁cried	-12.5861
▁numbing	-12.5861
▁wrapped	-12.5861
▁involving	-12.5862
▁devote	-12.5863
▁cheep	-12.5863
▁spoilt	-12.5864
▁quidd	-12.5867
▁booth	-12.5868
▁sailing	-12.5868
▁sunset	-12.587
▁decreased	-12.5877
▁refus	-12.5878
▁dip	-12.588
bank	-12.5891
▁roaming	-12.5892
▁sane	-12.5895
▁grenade	-12.5896
air	-12.5897
▁interviews	-12.5898
▁venues	-12.59
▁soooooooooo	-12.5905
▁arabia	-12.5906
▁whistle	-12.5914
▁cave	-12.5916
▁argue	-12.5918
bo	-12.5918
▁reflected	-12.5921
▁og	-12.5922
▁noobs	-12.5922
▁customizations	-12.5924
▁assets	-12.5929
▁rant	-12.5931
▁intuitively	-12.5944
▁indicates	-12.5944
▁gum	-12.5948
▁routinely	-12.5949
▁playin	-12.5955
▁spends	-12.5957
▁novels	-12.5963
note	-12.5967
▁emphasis	-12.5969
▁ipods	-12.5974
▁urge	-12.5975
▁disappoints	-12.5976
▁dressing	-12.5977
▁shameless	-12.5977
▁horrib	-12.5978
▁parker	-12.598
▁wallets	-12.5982
ho	-12.5982
ix	-12.5983
▁checkin	-12.5992
vg	-12.5994
▁newspapers	-12.6002
ls	-12.6007
▁zel	-12.6012
▁tvs	-12.6013
▁chuck	-12.6016
▁reverts	-12.6019
▁alerted	-12.6022
▁puzzler	-12.6022
cal	-12.6032
▁ke	-12.6034
▁sums	-12.6034
▁drafts	-12.6035
▁shoulders	-12.6045
▁git	-12.6045
cam	-12.6049
▁promotes	-12.6051
field	-12.6052
▁ringing	-12.6058
▁mails	-12.6076
▁slam	-12.608
▁collapse	-12.6092
▁burns	-12.6099
▁cf	-12.61
▁bingos	-12.6104
gr	-12.6106
de	-12.6106
▁batter	-12.6113
im	-12.6113
sky	-12.6114
sk	-12.6121
▁palette	-12.6121
▁emotion	-12.6121
▁kitten	-12.6122
▁diaper	-12.6122
▁rival	-12.6122
▁slap	-12.6125
▁interpret	-12.6127
▁wayyyy	-12.613
▁inputs	-12.6141
▁drone	-12.6144
▁hank	-12.6144
▁minion	-12.6145
▁troubleshoot	-12.6146
▁mage	-12.6146
▁andrew	-12.6151
▁invit	-12.6157
▁respectful	-12.6157
▁monitors	-12.6157
▁bites	-12.6159
▁reimburse	-12.6162
party	-12.6163
▁campaigns	-12.6163
▁wiz	-12.6166
▁demands	-12.6168
▁deploy	-12.6168
▁fandango	-12.6168
▁cautious	-12.6168
▁disadvantage	-12.6168
▁discouraging	-12.6168
▁klarna	-12.6168
▁recreate	-12.6168
▁grandfather	-12.6168
▁profound	-12.6168
▁elevation	-12.6168
▁humour	-12.6168
▁quadpay	-12.6168
▁gratitude	-12.6168
▁narration	-12.6168
▁catholic	-12.6168
▁konami	-12.6168
▁violent	-12.6168
▁width	-12.6168
▁lexus	-12.6168
▁funnest	-12.6169
▁soundhound	-12.6169
▁volunteer	-12.6169
▁droid	-12.6169
▁farmville	-12.6169
▁reeder	-12.6169
▁mobility	-12.6169
▁achievable	-12.6169
▁measuring	-12.6169
▁depressing	-12.617
▁mansion	-12.617
▁carpet	-12.617
▁earphones	-12.617
▁pitiful	-12.6171
▁formatted	-12.6171
▁distorted	-12.6172
▁regal	-12.6172
▁dpd	-12.6172
▁adhd	-12.6173
▁shiny	-12.6173
▁realistically	-12.6176
▁tmz	-12.6177
▁faxes	-12.6178
▁regrets	-12.6179
▁eta	-12.6182
▁hashtags	-12.6187
▁follower	-12.619
▁indicat	-12.6191
▁amino	-12.6191
▁contractions	-12.6193
▁funky	-12.6198
▁mere	-12.6198
▁altered	-12.6199
▁migraines	-12.6201
▁producers	-12.6203
▁rod	-12.6205
▁processor	-12.6206
▁warp	-12.6212
▁mentioning	-12.6215
▁interfere	-12.6217
▁jj	-12.6217
▁pts	-12.6221
▁gt	-12.6223
lew	-12.6227
▁rec	-12.6228
▁kan	-12.6229
▁amp	-12.6233
▁strips	-12.6234
▁fanatic	-12.6234
▁comforting	-12.6236
▁blurr	-12.6241
▁defeated	-12.6249
▁shorten	-12.6251
▁chairs	-12.6254
▁nam	-12.6258
▁gimmicks	-12.6259
▁fishy	-12.6262
▁abit	-12.6267
▁strain	-12.6273
▁wisely	-12.6274
ative	-12.6275
predictable	-12.6275
ried	-12.6276
▁expansions	-12.6277
unnies	-12.6281
▁imagined	-12.6284
▁peaks	-12.6284
▁nf	-12.6289
▁troll	-12.6292
▁monkeys	-12.6292
▁clears	-12.6299
▁lend	-12.63
▁sensational	-12.6322
▁cad	-12.6324
▁pant	-12.6324
▁spender	-12.6329
▁craze	-12.6337
▁dasher	-12.6339
▁guid	-12.6343
▁tactic	-12.6372
lark	-12.6375
▁aud	-12.6379
▁que	-12.6392
▁hir	-12.6393
▁friggin	-12.6399
▁locker	-12.6399
some	-12.6407
▁scal	-12.6409
wear	-12.6411
agging	-12.6413
▁downloader	-12.642
▁gl	-12.6421
▁jd	-12.6426
▁bands	-12.643
ping	-12.6432
▁jon	-12.6435
▁helicopter	-12.6442
▁division	-12.6442
▁procedure	-12.6444
▁venue	-12.6444
▁mans	-12.6444
▁scammer	-12.6445
▁junkie	-12.6446
▁buster	-12.6449
▁leak	-12.6449
▁passage	-12.6452
▁payday	-12.6453
▁wager	-12.6454
town	-12.6458
▁cm	-12.6458
kia	-12.646
craft	-12.6465
pe	-12.6468
▁mislead	-12.6469
▁oc	-12.6474
▁mines	-12.6474
▁empower	-12.6475
▁prison	-12.6476
▁intros	-12.6478
▁alphabetical	-12.6479
▁sustain	-12.6481
▁discourage	-12.6483
▁gifted	-12.6489
▁witness	-12.649
▁irregular	-12.6491
▁outweigh	-12.6491
▁tattoo	-12.6491
▁varieties	-12.6491
▁multitude	-12.6491
▁seldom	-12.6491
▁transgender	-12.6491
▁communities	-12.6491
▁sunrise	-12.6491
▁grandparent	-12.6491
▁oversight	-12.6491
▁prominent	-12.6491
▁tombola	-12.6491
▁banggood	-12.6491
▁decimal	-12.6491
▁honda	-12.6491
▁boggling	-12.6491
▁qualities	-12.6491
▁sceptic	-12.6491
▁gutted	-12.6491
▁supreme	-12.6491
▁hilton	-12.6491
▁authorization	-12.6491
▁devotional	-12.6491
▁suicide	-12.6491
▁lisa	-12.6492
▁rifle	-12.6492
▁flare	-12.6492
▁deemo	-12.6492
▁pride	-12.6492
▁cmb	-12.6492
▁corporation	-12.6492
▁gboard	-12.6493
▁wich	-12.6493
▁drew	-12.6493
▁wright	-12.6493
▁penalty	-12.6493
▁overkill	-12.6494
▁wordscapes	-12.6495
▁darkness	-12.65
▁thou	-12.65
loved	-12.6501
▁pip	-12.6501
like	-12.6502
▁strongest	-12.6502
ms	-12.6502
saurus	-12.6503
▁uplifting	-12.6504
▁sunny	-12.6506
▁mango	-12.6507
▁daycare	-12.6508
▁resent	-12.6509
▁dicks	-12.6512
▁twc	-12.6512
▁ava	-12.6513
▁blurring	-12.6514
▁adictive	-12.6515
▁sucky	-12.6515
▁assum	-12.6516
▁shutter	-12.6519
ster	-12.6521
▁maddening	-12.6522
▁harris	-12.6524
▁maximize	-12.6525
▁analyse	-12.6525
▁announcements	-12.6531
ita	-12.6534
unga	-12.6538
▁corn	-12.6541
▁spikes	-12.6542
▁bake	-12.6543
▁packet	-12.6547
▁pu	-12.6553
▁sever	-12.6553
▁invitations	-12.6567
▁los	-12.6577
related	-12.6577
▁brian	-12.6586
▁commenting	-12.6597
ving	-12.6598
lin	-12.66
endency	-12.6604
▁lan	-12.6604
▁impressions	-12.6605
▁warrior	-12.6606
▁gee	-12.6606
▁flows	-12.6607
▁separated	-12.6611
▁tele	-12.6616
ural	-12.662
▁doable	-12.6627
maker	-12.6628
▁ittt	-12.6629
▁villages	-12.6631
▁catcher	-12.6633
▁amend	-12.6634
▁locat	-12.6637
▁authenticate	-12.6638
uh	-12.6652
▁visualize	-12.6658
load	-12.6659
nc	-12.666
▁devil	-12.667
▁tastes	-12.6677
ti	-12.6678
▁nas	-12.6678
▁themed	-12.6679
ory	-12.6683
uthorized	-12.6684
nn	-12.6687
▁wr	-12.6691
story	-12.6693
key	-12.67
ut	-12.6715
▁mystic	-12.6721
▁negatives	-12.673
▁tooooo	-12.6735
▁fruits	-12.6742
▁interview	-12.6742
▁snapp	-12.6743
▁females	-12.675
hd	-12.6753
▁recieve	-12.6758
▁bore	-12.6767
▁frustrate	-12.677
uy	-12.677
▁barber	-12.6771
▁shutdown	-12.6776
▁motorcycle	-12.6777
▁craving	-12.6777
▁neighbour	-12.6777
▁demonstrate	-12.6777
▁hiccup	-12.6778
▁obstacle	-12.6778
done	-12.6779
▁headphone	-12.6779
▁null	-12.6781
▁bas	-12.6782
▁crushing	-12.6782
▁ahhh	-12.6782
▁aut	-12.6784
▁diagnos	-12.6785
▁stranger	-12.6789
▁cur	-12.6808
ds	-12.6808
front	-12.6808
▁adblock	-12.6809
▁holder	-12.6809
media	-12.6812
▁organis	-12.6813
▁pik	-12.6814
▁victoria	-12.6819
▁russia	-12.682
ht	-12.6821
▁teenage	-12.6823
▁illness	-12.6824
▁behalf	-12.6824
▁diabetes	-12.6824
▁flipaclip	-12.6824
▁horizon	-12.6824
▁invoicing	-12.6824
▁kiosk	-12.6824
▁uncommon	-12.6824
▁zodiac	-12.6824
▁gizmo	-12.6824
▁goooooood	-12.6824
▁relaunch	-12.6824
▁yikes	-12.6824
▁finicky	-12.6824
▁renovate	-12.6824
▁translating	-12.6824
▁vivid	-12.6824
▁propaganda	-12.6824
▁ssundee	-12.6824
▁mysteries	-12.6824
▁nordvpn	-12.6824
▁bloomberg	-12.6824
▁breathtaking	-12.6824
▁technician	-12.6824
▁expiration	-12.6824
▁roulette	-12.6824
▁exploration	-12.6824
▁tabata	-12.6824
▁jordan	-12.6825
▁tiring	-12.6825
▁civ	-12.6825
▁locator	-12.6825
▁constructive	-12.6825
▁inquiries	-12.6825
▁imdb	-12.6825
▁diversion	-12.6825
▁celebrities	-12.6825
▁functionalities	-12.6825
▁visibility	-12.6825
▁npr	-12.6825
▁okcupid	-12.6825
▁rural	-12.6825
▁robotic	-12.6826
▁notepad	-12.6827
▁homescreen	-12.6827
▁cabin	-12.6828
▁quickbooks	-12.6828
▁instructed	-12.6829
▁backyard	-12.6829
▁dummy	-12.683
▁ibotta	-12.6831
▁ought	-12.6832
▁vent	-12.6833
▁terrib	-12.6834
▁uhh	-12.6835
▁tadaa	-12.6838
▁lightening	-12.6842
▁louis	-12.6842
▁fussy	-12.6844
▁specs	-12.6846
▁burnt	-12.6847
▁jog	-12.6854
▁goto	-12.6856
▁addons	-12.6857
nches	-12.6858
ight	-12.6864
▁socks	-12.6865
▁hiccups	-12.6871
fx	-12.6873
▁kittens	-12.6874
▁avis	-12.688
▁rpgs	-12.6882
tr	-12.6882
▁strokes	-12.6884
▁buffs	-12.6897
▁aug	-12.6899
table	-12.6902
▁shotgun	-12.6908
▁snakes	-12.6914
▁strive	-12.6919
▁newbies	-12.6926
ries	-12.693
bound	-12.6931
▁ical	-12.6932
▁theaters	-12.6936
▁mill	-12.6956
▁cared	-12.6961
▁readable	-12.6969
▁cashman	-12.6969
aa	-12.6972
▁annoyances	-12.6976
▁chop	-12.6985
▁listens	-12.7005
▁exported	-12.7013
mm	-12.7017
▁chickens	-12.7019
▁frie	-12.7022
▁josh	-12.703
▁adt	-12.7033
▁stacks	-12.7034
▁gu	-12.7037
all	-12.7037
▁grouping	-12.705
▁edmo	-12.7053
▁clinic	-12.7058
▁generations	-12.7077
▁tame	-12.7086
▁troop	-12.7098
▁lecture	-12.7102
▁bears	-12.7104
lika	-12.7104
▁victim	-12.7106
▁executive	-12.7118
▁powerpoint	-12.7119
▁failures	-12.712
▁evite	-12.7121
▁ingredient	-12.7123
▁drums	-12.7124
▁annotation	-12.7127
ney	-12.7127
lander	-12.7131
ization	-12.7132
▁locals	-12.7133
▁offerings	-12.7135
▁execute	-12.7142
competent	-12.7142
▁grrr	-12.7143
good	-12.7147
▁goo	-12.7154
▁conscious	-12.7155
▁seperate	-12.7156
▁chronological	-12.7156
▁devise	-12.7161
ummy	-12.7163
▁overload	-12.7167
▁mil	-12.7168
▁assault	-12.7169
▁clutch	-12.7169
▁emergencies	-12.7169
▁melbourne	-12.7169
▁nespresso	-12.7169
▁ukulele	-12.7169
▁vagaro	-12.7169
▁jealous	-12.7169
▁naruto	-12.7169
▁python	-12.7169
▁remedy	-12.7169
▁unwatchable	-12.7169
▁horde	-12.7169
▁podbean	-12.7169
▁joseph	-12.7169
▁anchor	-12.7169
▁activating	-12.7169
▁relieving	-12.7169
▁optimal	-12.7169
▁attentive	-12.7169
▁comprehend	-12.7169
▁broadband	-12.7169
▁rogue	-12.7169
▁occurring	-12.7169
▁freddy	-12.7169
▁festival	-12.7169
▁handwritten	-12.7169
▁rectified	-12.7169
▁revolutionary	-12.7169
▁unimpressed	-12.7169
▁aquarium	-12.7169
▁shaking	-12.7169
▁zara	-12.7169
▁highrise	-12.7169
▁covet	-12.7169
▁bodies	-12.717
▁purse	-12.717
▁planoly	-12.717
▁ploy	-12.717
▁ingenious	-12.717
▁terminal	-12.717
▁centric	-12.717
▁apology	-12.717
▁dept	-12.717
▁shoddy	-12.717
▁tolerate	-12.7171
▁aggravated	-12.7171
▁breastfeeding	-12.7172
▁martin	-12.7172
▁throne	-12.7172
▁cashier	-12.7173
ii	-12.7173
▁petty	-12.7174
▁scammy	-12.7174
▁compromised	-12.7174
▁anyhow	-12.7174
ove	-12.7175
▁diving	-12.7176
▁discouraged	-12.7178
▁mysteriously	-12.7179
▁reimbursed	-12.7181
▁advancement	-12.7181
▁respective	-12.7182
▁lick	-12.7183
▁scrubb	-12.7184
▁depot	-12.7185
▁belt	-12.7186
▁upwards	-12.7187
▁yell	-12.7188
▁goodreader	-12.7188
▁noaa	-12.719
▁wk	-12.719
▁evolved	-12.7191
estimated	-12.7192
▁entitle	-12.7192
▁nudes	-12.7192
▁bk	-12.7193
▁ifttt	-12.7195
▁daw	-12.7197
▁attributes	-12.7197
ade	-12.7202
cu	-12.7204
▁overtime	-12.7205
▁adicting	-12.7206
▁loveeeee	-12.7207
▁athletes	-12.7209
▁despise	-12.7219
▁lengths	-12.7219
▁receiver	-12.7222
▁payees	-12.7226
▁timings	-12.7227
great	-12.723
▁deaths	-12.7231
▁shorts	-12.7233
▁accounting	-12.7241
▁intentions	-12.7244
▁inspires	-12.7245
▁indicators	-12.7249
▁tides	-12.7249
▁fuse	-12.7249
▁dressed	-12.725
page	-12.7255
▁naps	-12.7258
▁shakes	-12.7285
▁cl	-12.7294
▁huuu	-12.73
▁analyz	-12.7304
▁specie	-12.7304
zy	-12.7307
▁villager	-12.7317
▁phases	-12.7318
ell	-12.7326
▁mastered	-12.7333
▁pushy	-12.7333
▁calibrate	-12.7336
▁nun	-12.7343
▁schemes	-12.7353
▁consist	-12.7355
▁reminisce	-12.7356
ins	-12.7367
▁define	-12.7386
▁ware	-12.7389
▁tackle	-12.7389
▁trusting	-12.7394
▁dads	-12.7399
sy	-12.7403
▁flowing	-12.7403
▁functionally	-12.7405
▁reinforce	-12.7414
que	-12.7417
▁argu	-12.7433
▁decently	-12.7438
▁concur	-12.744
▁votes	-12.7445
▁yasss	-12.7463
▁ensur	-12.7472
▁aged	-12.7474
▁preparation	-12.7476
▁championship	-12.7477
▁snapshot	-12.7478
▁cricket	-12.7478
▁lip	-12.7481
▁publisher	-12.7483
▁grub	-12.7493
der	-12.7493
▁dictate	-12.7499
▁tx	-12.7501
▁celebrate	-12.7503
▁therefor	-12.7504
▁fighter	-12.7506
ions	-12.7507
▁blade	-12.7508
▁applaud	-12.7511
board	-12.7513
ane	-12.7513
▁irritate	-12.7519
▁annotate	-12.7519
▁minimize	-12.7521
cloud	-12.7522
▁aggravation	-12.7526
▁blossom	-12.7526
▁diabetic	-12.7526
▁dynasty	-12.7526
▁jersey	-12.7526
▁knives	-12.7526
▁practise	-12.7526
▁terrifying	-12.7526
▁twelve	-12.7526
▁underneath	-12.7526
▁woebot	-12.7526
▁geography	-12.7526
▁moonpig	-12.7526
▁kindergarten	-12.7526
▁sushi	-12.7526
▁rediculous	-12.7526
▁syfy	-12.7526
▁economist	-12.7526
▁bullied	-12.7526
▁slimeatory	-12.7526
▁niggle	-12.7526
▁packaging	-12.7526
▁woah	-12.7526
▁destruction	-12.7526
▁pennies	-12.7526
▁submission	-12.7526
▁hannah	-12.7526
▁pillow	-12.7526
▁terrain	-12.7527
▁clout	-12.7527
▁sketchbook	-12.7527
▁battlefront	-12.7527
▁pinpoint	-12.7527
▁aloha	-12.7527
▁celebration	-12.7527
▁ipsy	-12.7527
▁polo	-12.7527
▁poof	-12.7528
▁eleven	-12.7528
▁firestick	-12.7528
▁unreadable	-12.7528
icrotransactions	-12.7528
▁bmi	-12.7528
▁clueless	-12.7529
▁synth	-12.7529
▁mfp	-12.7529
▁inclined	-12.753
▁pony	-12.753
▁overdue	-12.753
▁dweller	-12.753
ility	-12.7531
▁gane	-12.7532
▁faint	-12.7532
▁romantic	-12.7532
▁jerky	-12.7533
▁stumped	-12.7534
▁mvp	-12.7534
▁tidy	-12.7536
▁blueprint	-12.7537
▁stalled	-12.7538
▁albert	-12.7538
▁wound	-12.7538
▁debat	-12.7539
▁lamp	-12.7539
▁cloths	-12.7542
▁overloaded	-12.7544
▁independently	-12.7552
▁tipping	-12.7552
▁demon	-12.7561
▁nana	-12.7561
dom	-12.7565
▁freaky	-12.7565
▁peel	-12.7569
▁behave	-12.7569
▁aura	-12.7571
▁smashed	-12.7575
▁annotations	-12.7575
▁fest	-12.7583
▁sitters	-12.7584
made	-12.7588
▁brakes	-12.7591
▁agar	-12.7591
not	-12.7592
▁header	-12.7593
▁noon	-12.7594
▁questioning	-12.7597
▁singers	-12.7601
▁bush	-12.7607
▁withdrawals	-12.761
▁banging	-12.7616
eat	-12.7617
▁callers	-12.7624
▁sur	-12.7625
▁pills	-12.7629
▁swearing	-12.7632
fu	-12.7633
▁halt	-12.7642
▁del	-12.7647
ium	-12.7651
▁secured	-12.7651
▁fantastical	-12.7655
▁formal	-12.7661
▁whale	-12.7673
▁pisse	-12.768
▁tastic	-12.7685
onze	-12.7686
▁presum	-12.7689
▁digits	-12.7692
▁timeout	-12.7693
▁avi	-12.7696
▁diets	-12.7698
▁alley	-12.7704
▁ky	-12.7707
fa	-12.7709
▁presentations	-12.7715
▁dares	-12.7716
▁axe	-12.7722
ying	-12.7732
▁googled	-12.7735
▁coll	-12.7735
▁skilled	-12.7736
▁hitch	-12.7745
▁stun	-12.7747
ft	-12.7765
ek	-12.7773
mail	-12.7785
▁bra	-12.7791
▁tear	-12.7792
cose	-12.7796
▁shuffl	-12.78
▁pinn	-12.7802
▁sk	-12.7813
▁cakes	-12.7818
▁censor	-12.7833
ssss	-12.7834
▁val	-12.7842
▁iteration	-12.7843
▁thief	-12.7844
▁tornado	-12.7846
▁miracle	-12.7847
card	-12.7847
▁kohl	-12.7849
▁flame	-12.7849
▁goog	-12.785
▁announcement	-12.7851
▁traveller	-12.7851
▁checkpoint	-12.7851
▁waaaaay	-12.7852
▁bff	-12.7852
ela	-12.7854
▁adam	-12.786
▁forbid	-12.7868
▁marker	-12.7872
▁dowload	-12.7872
▁sbs	-12.7874
▁yuh	-12.7875
face	-12.7878
▁surrounding	-12.7878
▁studi	-12.788
paid	-12.7883
ko	-12.7883
▁threaten	-12.7885
▁mysterious	-12.7885
▁arise	-12.7886
▁continual	-12.7887
▁hike	-12.7892
▁demi	-12.7892
▁costa	-12.7893
▁ob	-12.7893
▁preschool	-12.7895
▁lgbt	-12.7896
▁babbel	-12.7896
▁discreet	-12.7896
▁goblin	-12.7896
▁hebrew	-12.7896
▁impeccable	-12.7896
▁protocol	-12.7896
▁sobriety	-12.7896
▁turret	-12.7896
▁unpleasant	-12.7896
▁zepeto	-12.7896
▁appreciative	-12.7896
▁dairy	-12.7896
▁squeeze	-12.7896
▁steak	-12.7896
▁snapfish	-12.7897
▁michigan	-12.7897
▁thanksgiving	-12.7897
▁genesis	-12.7897
▁jason	-12.7897
▁reputable	-12.7897
▁narrator	-12.7897
▁foolish	-12.7897
▁restrictive	-12.7897
▁underrated	-12.7897
▁homescapes	-12.7897
▁yarn	-12.7897
▁puzzling	-12.7898
▁lava	-12.7898
▁critique	-12.7898
▁richard	-12.7898
▁linda	-12.7898
▁wolves	-12.7898
▁charles	-12.7898
▁magnify	-12.7898
▁facetune	-12.7898
▁imho	-12.7898
▁momentum	-12.7899
▁stranded	-12.7899
▁jams	-12.79
▁rice	-12.79
▁digest	-12.7901
▁feud	-12.7901
▁excess	-12.7901
▁fiber	-12.7901
▁heft	-12.7902
▁approx	-12.7903
▁asmr	-12.7903
▁icing	-12.7903
▁glorifi	-12.7905
▁pitches	-12.7905
▁overlooked	-12.7906
▁censored	-12.791
▁cliff	-12.791
▁stepz	-12.791
olonis	-12.7911
▁creeped	-12.7914
▁mediation	-12.7915
▁trendy	-12.7918
▁barrel	-12.7919
▁boxing	-12.7919
▁usps	-12.792
▁acknowledged	-12.7921
▁similarly	-12.7922
▁heros	-12.7922
▁accuse	-12.7925
alone	-12.7925
▁polls	-12.7937
kin	-12.7938
▁logbook	-12.7938
▁earnin	-12.7941
ino	-12.7942
▁hikes	-12.7943
▁exceeding	-12.7944
▁lips	-12.7945
▁shein	-12.7948
▁deb	-12.7953
ila	-12.7955
▁yeh	-12.7955
▁meaningless	-12.7956
▁suffered	-12.7956
▁stuffed	-12.7965
▁straighten	-12.7966
▁faultless	-12.7966
most	-12.7968
attle	-12.7968
▁washing	-12.7969
▁chi	-12.7969
▁informing	-12.7974
cadence	-12.7976
▁bjs	-12.7976
gana	-12.7977
ggage	-12.798
▁leaps	-12.798
▁internationally	-12.7989
▁cutter	-12.7989
▁sooooooooooo	-12.8007
▁mailing	-12.8018
aware	-12.8018
share	-12.8022
▁seeker	-12.8022
cc	-12.8029
▁william	-12.8033
▁drained	-12.8057
▁forecasting	-12.8063
opped	-12.8073
rous	-12.8096
▁chev	-12.8099
▁mah	-12.8104
▁suffers	-12.8107
▁nom	-12.8107
▁doubts	-12.811
▁penalize	-12.811
▁insul	-12.811
matic	-12.8114
▁err	-12.8116
▁tok	-12.8118
▁facilitate	-12.8133
▁indie	-12.8137
▁prey	-12.8144
▁usernames	-12.8146
▁df	-12.8147
▁validate	-12.8154
▁qu	-12.8175
▁bridges	-12.8177
oe	-12.8184
ud	-12.8192
▁plugs	-12.8192
▁zing	-12.8211
▁reoccurr	-12.8215
▁domestic	-12.8215
▁associate	-12.8225
fia	-12.8226
fortunately	-12.8228
▁prism	-12.8231
▁assessment	-12.8231
▁conqueror	-12.8232
▁meetup	-12.8234
▁merchant	-12.8234
▁eu	-12.8235
▁contractor	-12.8236
▁employer	-12.8236
▁medal	-12.8238
▁jerk	-12.8239
ters	-12.8239
bird	-12.8256
aaa	-12.8259
▁sadden	-12.8259
edication	-12.8266
▁strengthen	-12.8268
▁intellectual	-12.8269
▁skew	-12.8273
▁fluff	-12.8275
▁recycle	-12.8277
▁arseblog	-12.828
▁agencies	-12.8281
▁animating	-12.8281
▁atlanta	-12.8281
▁coincidence	-12.8281
▁gossip	-12.8281
▁invasion	-12.8281
▁pertinent	-12.8281
▁qapital	-12.8281
▁revenge	-12.8281
▁unobtrusive	-12.8281
▁ecobee	-12.8281
▁chemical	-12.8281
▁dhgate	-12.8281
▁prettier	-12.8281
▁stubhub	-12.8281
▁association	-12.8281
▁conscience	-12.8281
▁cnbc	-12.8281
▁derby	-12.8281
▁incompetence	-12.8281
▁peloton	-12.8281
▁vivo	-12.8281
▁tesco	-12.8281
▁quilt	-12.8281
▁personnel	-12.8281
▁configurable	-12.8281
▁viator	-12.8281
▁flaky	-12.8281
▁steadily	-12.8281
▁immersion	-12.8281
▁obsession	-12.8282
▁jailbroken	-12.8282
▁manipulation	-12.8282
▁healthkit	-12.8282
▁disrespectful	-12.8282
▁photomath	-12.8282
▁clipping	-12.8282
▁postcode	-12.8282
▁gopuff	-12.8282
▁reckon	-12.8282
▁reassuring	-12.8282
▁thnx	-12.8282
▁convey	-12.8282
▁nikki	-12.8283
plus	-12.8283
▁nano	-12.8283
▁smack	-12.8283
▁ummmm	-12.8284
▁daniel	-12.8284
xx	-12.8284
▁jones	-12.8284
▁hong	-12.8285
▁characteristic	-12.8285
▁lastpass	-12.8285
▁cringe	-12.8286
▁responsiveness	-12.8286
▁faceid	-12.8287
▁moderators	-12.8289
▁goodreads	-12.8291
▁awaited	-12.8291
▁queries	-12.8291
▁asome	-12.8292
▁bulky	-12.8293
▁realism	-12.8293
▁stepped	-12.8293
▁explosions	-12.8293
▁bendy	-12.8295
▁lasting	-12.8297
▁retailers	-12.8299
▁pur	-12.8301
▁budgets	-12.8302
eaten	-12.8302
▁olympics	-12.8306
▁bitter	-12.8306
▁starling	-12.8306
▁orb	-12.8311
fully	-12.8315
▁playoff	-12.8316
▁cutscenes	-12.8319
▁tic	-12.8322
▁owed	-12.8325
▁blades	-12.8332
▁ness	-12.8334
▁blonde	-12.8335
fax	-12.8337
▁nj	-12.8341
▁rode	-12.8342
▁adapter	-12.8346
▁tense	-12.8346
erg	-12.8346
▁morons	-12.8351
▁verb	-12.8352
▁zoe	-12.8354
▁innings	-12.8356
▁reloads	-12.8356
▁storylines	-12.836
ches	-12.8363
▁outgoing	-12.837
▁resting	-12.8376
▁inning	-12.8377
▁smil	-12.8377
▁ua	-12.838
▁tires	-12.8382
▁outcomes	-12.8383
▁contemplat	-12.8384
▁lu	-12.8388
rank	-12.8388
eh	-12.839
▁dud	-12.8396
▁bounces	-12.84
▁popups	-12.8404
▁vol	-12.8406
▁quarters	-12.8411
▁cue	-12.842
▁hhh	-12.8422
▁preload	-12.8432
▁drawbacks	-12.8435
▁memo	-12.8437
▁wary	-12.8439
▁abra	-12.8441
▁donation	-12.8451
▁digitally	-12.8458
▁chilling	-12.8458
ors	-12.846
com	-12.8463
▁rises	-12.8465
lt	-12.8467
▁runes	-12.8473
▁hom	-12.8475
▁replaying	-12.8484
▁whoop	-12.8505
ik	-12.8512
▁checker	-12.8514
▁ei	-12.8528
▁unicorns	-12.8528
ya	-12.8534
▁splitt	-12.8537
▁itttt	-12.8538
▁guru	-12.8544
jd	-12.8547
▁goin	-12.8548
ament	-12.855
▁bast	-12.8556
▁punish	-12.8556
▁dye	-12.8561
▁stare	-12.8565
▁civil	-12.8566
space	-12.8584
ngue	-12.8587
▁oppose	-12.8592
▁recruit	-12.8594
▁babe	-12.8594
▁bean	-12.8598
▁shov	-12.8602
▁diagnose	-12.8604
▁fate	-12.8606
▁irl	-12.861
▁fabric	-12.862
▁clocks	-12.862
nes	-12.8623
bug	-12.8626
▁bj	-12.8631
▁evo	-12.8633
▁trillion	-12.8633
▁argument	-12.8633
▁skeleton	-12.8634
▁cosmetic	-12.8634
▁citizen	-12.8635
▁sleepy	-12.8635
▁athlete	-12.8635
▁interruption	-12.8637
▁freebie	-12.8637
▁expression	-12.8638
▁mimic	-12.8643
▁gav	-12.8646
▁yass	-12.8647
▁overlap	-12.8649
▁zo	-12.865
▁clarify	-12.8652
cause	-12.8668
▁tailor	-12.8669
▁immense	-12.867
een	-12.867
you	-12.8672
▁blob	-12.8673
▁dirt	-12.8675
mc	-12.8675
truck	-12.8676
▁intentional	-12.8678
▁cognitive	-12.8681
▁elaborate	-12.8681
▁hollister	-12.8681
▁insufficient	-12.8681
▁medieval	-12.8681
▁poptropica	-12.8681
▁unenjoyable	-12.8681
▁beyblade	-12.8681
▁butterfly	-12.8681
▁council	-12.8681
▁excursion	-12.8681
▁intricate	-12.8681
▁romwe	-12.8681
▁telstra	-12.8681
▁thunderstorm	-12.8681
▁paybills	-12.8681
▁joyride	-12.8681
▁inclusion	-12.8681
▁uncomplicated	-12.8681
▁negativity	-12.8681
▁salesforce	-12.8681
▁crossfit	-12.8681
▁professor	-12.8681
▁jewelry	-12.8681
▁ameritrade	-12.8681
▁caveat	-12.8682
▁bueno	-12.8682
▁deezer	-12.8682
▁jackson	-12.8682
▁nois	-12.8682
▁recycling	-12.8683
▁herself	-12.8683
▁weaknesses	-12.8683
▁destiny	-12.8683
▁diesel	-12.8683
▁touchscreen	-12.8683
▁picsart	-12.8683
▁inexcusable	-12.8683
▁bothersome	-12.8683
▁fios	-12.8683
▁perpetual	-12.8685
▁sandwiches	-12.8685
▁amusement	-12.8686
▁overcharged	-12.8686
▁sketches	-12.8686
▁welp	-12.8686
▁lagged	-12.8687
▁eastern	-12.8687
▁retouch	-12.8687
▁tooo	-12.8687
▁advertisers	-12.8687
▁offended	-12.8688
▁fluffy	-12.8689
▁streamline	-12.8689
▁takl	-12.8689
▁accidental	-12.869
ito	-12.869
hub	-12.8691
▁absorbing	-12.8693
▁haul	-12.8694
▁digger	-12.8694
▁bday	-12.8696
▁flirt	-12.8697
▁welcom	-12.8697
▁seams	-12.8699
▁owl	-12.8702
▁effortlessly	-12.8703
▁enthusiastic	-12.8704
▁pluto	-12.8708
▁revealed	-12.8715
▁reversed	-12.8716
▁warships	-12.8717
▁coolio	-12.8722
▁sony	-12.8722
▁differ	-12.8722
▁ticked	-12.8724
▁outages	-12.8724
▁citizens	-12.8728
▁seeds	-12.8728
▁expressions	-12.8728
hr	-12.8736
▁voted	-12.8737
▁blending	-12.874
med	-12.8743
▁tester	-12.8743
live	-12.8749
▁yuck	-12.8751
▁forming	-12.8758
▁ign	-12.8759
▁bann	-12.876
▁francis	-12.8765
▁blanks	-12.8765
▁appropriately	-12.8768
▁barrage	-12.8769
▁irish	-12.8778
▁redbox	-12.8786
▁wiki	-12.879
▁receives	-12.8791
▁probabilit	-12.8796
▁commander	-12.8798
▁inconsistenc	-12.8799
▁wp	-12.8799
▁hah	-12.8804
▁logon	-12.8806
▁financially	-12.8808
▁pup	-12.8809
▁bribe	-12.8813
▁mush	-12.8813
ure	-12.8815
▁positives	-12.882
bd	-12.8827
▁bricks	-12.8834
ipped	-12.885
▁tony	-12.8852
▁jc	-12.8856
kka	-12.8857
▁chefs	-12.8858
▁woods	-12.887
▁belly	-12.8871
ov	-12.8874
▁dee	-12.8874
▁coool	-12.8883
▁swell	-12.8887
▁opener	-12.8896
city	-12.8902
doc	-12.8915
▁positively	-12.8915
▁wor	-12.8925
▁gal	-12.8928
▁fob	-12.8935
▁chroma	-12.8944
▁faves	-12.895
▁guilds	-12.8951
rt	-12.8951
ua	-12.8956
eo	-12.8956
▁rc	-12.8957
▁reel	-12.8957
▁tsa	-12.8958
▁conduct	-12.8964
▁sq	-12.8966
conic	-12.8968
▁chopp	-12.8973
▁feat	-12.898
rd	-12.8983
ass	-12.9
ken	-12.901
▁tu	-12.9011
▁ahh	-12.9016
fy	-12.9018
let	-12.9018
▁jane	-12.9022
▁enhanc	-12.9023
▁pane	-12.9025
▁stall	-12.9025
▁justin	-12.9031
map	-12.9033
▁generat	-12.9037
▁disabl	-12.9043
▁critic	-12.9045
▁aussie	-12.9046
▁scrolled	-12.9048
▁renovation	-12.905
▁perf	-12.9053
▁folk	-12.9053
▁spoon	-12.9054
▁headline	-12.9055
▁gore	-12.9056
▁fiction	-12.9058
▁disturb	-12.9061
▁cheater	-12.9066
rr	-12.9066
ize	-12.9068
▁aired	-12.9073
▁disrupt	-12.9074
▁portray	-12.9084
▁prince	-12.9085
▁streamer	-12.9085
▁bre	-12.9086
▁pester	-12.9088
▁endure	-12.9092
▁korea	-12.9096
▁alcohol	-12.9097
vo	-12.9097
▁egypt	-12.9098
▁allergies	-12.9098
▁autocorrect	-12.9098
▁bankrupt	-12.9098
▁commuting	-12.9098
▁exelent	-12.9098
▁kijiji	-12.9098
▁relentless	-12.9098
▁savior	-12.9098
▁singapore	-12.9098
▁thumbtack	-12.9098
▁aliexpress	-12.9098
▁dubai	-12.9098
▁memorable	-12.9098
▁looooove	-12.9098
▁zoho	-12.9098
▁marvellous	-12.9098
▁boston	-12.9098
▁omron	-12.9098
▁unfold	-12.9098
▁huggies	-12.9098
▁athletic	-12.9098
▁strobe	-12.9098
▁hoax	-12.9098
▁deception	-12.9098
▁firewall	-12.9098
▁flagged	-12.9098
▁inadvertent	-12.9098
▁fridge	-12.9098
▁aweful	-12.9098
▁cluster	-12.9098
▁sporadically	-12.9098
▁coooool	-12.9098
▁dramatic	-12.9098
▁abruptly	-12.9099
▁ignorant	-12.9099
▁nyan	-12.9099
▁tb	-12.9099
▁morph	-12.91
▁travelled	-12.91
▁predictive	-12.91
▁engagement	-12.91
▁jumbled	-12.91
▁mindset	-12.91
▁colorfy	-12.91
▁kayak	-12.9101
▁worship	-12.9101
▁zappos	-12.9101
▁cozi	-12.9101
▁affirmation	-12.9102
▁ruby	-12.9102
▁toolbar	-12.9102
▁doubling	-12.9102
▁bum	-12.9103
▁satisfie	-12.9103
▁infection	-12.9104
▁amused	-12.9105
▁hira	-12.9107
ooo	-12.9107
▁philips	-12.9107
▁disconnection	-12.9108
▁loveee	-12.9108
▁villain	-12.9108
▁spammy	-12.9111
▁develops	-12.9111
▁weaker	-12.9112
▁letdown	-12.9114
▁experian	-12.9114
▁tango	-12.9114
▁nothin	-12.9116
▁bur	-12.9118
▁appliances	-12.9119
▁modifications	-12.9123
▁visitors	-12.9123
▁hearted	-12.9123
▁fd	-12.9125
▁graphically	-12.9125
▁pottery	-12.9126
▁boycott	-12.9127
▁deductions	-12.9129
▁poll	-12.913
▁residents	-12.9131
▁async	-12.9131
▁memorized	-12.9134
▁downgraded	-12.9134
▁amaz	-12.9135
▁nerfed	-12.914
▁attractions	-12.9141
▁funner	-12.9144
▁amber	-12.9146
▁sha	-12.915
ner	-12.9151
▁flake	-12.9152
tesla	-12.9159
▁stalk	-12.916
▁hud	-12.9162
▁minions	-12.9164
▁humble	-12.9164
▁stoke	-12.9165
▁sketching	-12.9165
▁testers	-12.917
▁experimenting	-12.9171
▁factions	-12.9171
set	-12.9172
▁fc	-12.9177
▁lin	-12.9177
▁enthusiasts	-12.9179
cat	-12.918
▁dum	-12.9181
▁oreo	-12.9189
▁belongs	-12.9189
achu	-12.9194
▁aunt	-12.9202
▁sequences	-12.9205
▁fart	-12.9206
▁nitro	-12.9207
▁accents	-12.9209
▁entertains	-12.9211
▁gra	-12.9212
have	-12.9212
▁techie	-12.9215
▁bananas	-12.9223
▁cows	-12.9227
▁bestest	-12.9232
▁cubes	-12.9235
▁flush	-12.9239
▁probs	-12.9244
▁labs	-12.9245
▁dinos	-12.9246
▁shin	-12.9248
▁waits	-12.9257
▁paintings	-12.9257
▁americans	-12.926
▁apr	-12.9271
ui	-12.9272
py	-12.9282
▁defender	-12.9308
ld	-12.9308
▁dealers	-12.9308
▁upto	-12.9313
fit	-12.9315
▁crushed	-12.9317
▁knee	-12.9317
reas	-12.9318
▁venture	-12.932
referred	-12.9321
▁mech	-12.9327
hy	-12.9346
▁cul	-12.9355
▁fortress	-12.9357
si	-12.9365
▁convo	-12.9366
ana	-12.9389
▁cooool	-12.939
▁warrant	-12.9391
▁baffl	-12.9397
▁accidents	-12.9412
▁alt	-12.9413
▁revolution	-12.9414
zz	-12.9417
▁breach	-12.9418
▁anna	-12.9422
fo	-12.9429
mple	-12.9438
▁rem	-12.9441
▁pens	-12.9445
▁toooo	-12.9447
▁candle	-12.9447
▁whim	-12.9469
▁conflict	-12.9471
▁groom	-12.9478
▁transcription	-12.9482
▁giggle	-12.9485
▁civilization	-12.9485
▁privilege	-12.9486
▁migraine	-12.9486
▁bagel	-12.9488
▁lt	-12.9491
▁explorer	-12.9494
▁producer	-12.9494
rge	-12.9509
▁misspell	-12.9511
screen	-12.9518
▁drawer	-12.9519
▁frenz	-12.9519
▁preorder	-12.9519
▁cannon	-12.9523
wire	-12.9523
▁lighten	-12.9525
water	-12.9527
type	-12.9527
▁waaay	-12.9528
▁neutral	-12.9532
▁dallas	-12.9533
▁descriptive	-12.9533
▁disguise	-12.9533
▁duckduckgo	-12.9533
▁evaluation	-12.9533
▁hedgehog	-12.9533
▁mosaic	-12.9533
▁redemption	-12.9533
▁repurchase	-12.9533
▁supernatural	-12.9533
▁violence	-12.9533
tensive	-12.9533
▁dishearten	-12.9533
▁exellent	-12.9533
▁punctuation	-12.9533
▁stocard	-12.9533
▁vacuum	-12.9533
▁violin	-12.9533
▁natwest	-12.9533
▁shpock	-12.9533
▁snapseed	-12.9533
▁counterpart	-12.9533
▁miami	-12.9533
▁ecosystem	-12.9533
▁abusive	-12.9533
▁jpeg	-12.9533
▁mixture	-12.9533
▁understatement	-12.9533
▁grandmother	-12.9533
▁cotton	-12.9533
▁gravity	-12.9533
▁shoutout	-12.9533
▁absence	-12.9533
▁knockoff	-12.9533
▁mastercard	-12.9533
▁ticketmaster	-12.9533
▁bracket	-12.9533
▁splice	-12.9533
▁limbo	-12.9533
▁tapjoy	-12.9533
▁converse	-12.9533
▁lollipop	-12.9534
▁weebly	-12.9534
▁webcam	-12.9534
▁gallon	-12.9534
▁miller	-12.9534
▁domain	-12.9534
▁stealth	-12.9535
▁cupcake	-12.9535
▁warby	-12.9535
▁humanity	-12.9535
▁mustang	-12.9536
▁electronically	-12.9536
▁observation	-12.9536
▁sift	-12.9536
▁hideous	-12.9537
▁cheeky	-12.9537
▁sprout	-12.9537
▁blogger	-12.9538
▁skies	-12.9538
▁phon	-12.9538
▁greeting	-12.9539
▁siren	-12.9539
▁dire	-12.9539
▁gsn	-12.9539
▁offerup	-12.954
▁constraint	-12.9541
▁linear	-12.9542
worth	-12.9543
▁crane	-12.9543
▁deactivate	-12.9544
▁diagrams	-12.9544
▁rim	-12.9544
▁shortcomings	-12.9546
▁dbt	-12.9546
▁dough	-12.9547
▁pole	-12.9549
▁georgia	-12.9552
▁sayin	-12.9552
▁heath	-12.9553
shot	-12.9553
▁sober	-12.9556
▁conceived	-12.9556
▁summoners	-12.9557
▁jean	-12.956
▁ole	-12.956
▁sour	-12.9562
▁dismissed	-12.9562
▁cookbook	-12.9563
▁malfunctioning	-12.9566
▁nuke	-12.9566
▁publications	-12.9569
▁recomended	-12.9571
▁idevices	-12.9571
▁plum	-12.9573
▁smoked	-12.9575
rc	-12.9575
▁ramse	-12.9579
▁restricting	-12.9581
▁googl	-12.9582
player	-12.9584
▁nightly	-12.9584
ky	-12.9585
bridge	-12.9587
▁prospect	-12.9589
ways	-12.959
inkle	-12.9596
▁dubs	-12.96
▁ag	-12.9604
▁equipp	-12.9606
▁shipments	-12.9609
▁signals	-12.9612
▁wha	-12.9615
▁yassss	-12.9615
▁windy	-12.9616
▁swarm	-12.9621
▁outage	-12.9621
▁waisted	-12.9624
berry	-12.9625
ki	-12.9625
wa	-12.9627
▁peet	-12.9631
try	-12.9631
▁seniors	-12.9636
▁forgive	-12.9637
▁traders	-12.9638
▁hw	-12.9639
▁playtime	-12.9641
▁hana	-12.9642
▁rex	-12.9646
track	-12.9647
▁supplements	-12.9655
▁unload	-12.9655
▁yards	-12.9656
▁spac	-12.9657
▁ripp	-12.9659
▁becua	-12.9666
▁forgetful	-12.9669
iff	-12.9672
▁reasoning	-12.9674
▁toast	-12.9674
▁amateurs	-12.9676
▁iii	-12.9678
▁duplicat	-12.9678
▁swords	-12.9682
old	-12.9682
▁moons	-12.9692
port	-12.9693
mar	-12.9698
uk	-12.9699
▁ratios	-12.9701
▁broadcasts	-12.9708
▁sept	-12.9716
▁berry	-12.9719
▁sweep	-12.9732
▁grr	-12.974
▁integrat	-12.9743
bb	-12.9749
▁shifting	-12.9751
onna	-12.9757
▁shi	-12.9766
boxes	-12.9767
▁wellness	-12.9774
ced	-12.9776
▁mk	-12.9784
▁nan	-12.9789
▁compress	-12.9791
▁scanners	-12.9797
ig	-12.9798
▁fing	-12.9806
▁ru	-12.981
▁tale	-12.9816
▁ight	-12.9822
▁surpasse	-12.9823
sc	-12.9827
▁rag	-12.9834
▁booo	-12.9856
▁advances	-12.9857
▁ci	-12.9859
gram	-12.9872
▁ref	-12.9873
▁operates	-12.9878
▁resist	-12.9882
▁origin	-12.9886
▁mend	-12.989
ase	-12.9894
▁cv	-12.9898
▁gina	-12.9902
▁weirdly	-12.9903
ating	-12.9904
bus	-12.9906
▁cho	-12.9907
▁float	-12.9909
▁patron	-12.9909
gently	-12.9912
▁mothers	-12.9917
▁describ	-12.9919
tw	-12.9919
▁tub	-12.9923
▁js	-12.9926
▁groove	-12.9932
lab	-12.9933
▁predecessor	-12.9936
▁uncle	-12.9937
▁detector	-12.9939
▁decoration	-12.9942
▁milestone	-12.9942
▁flicker	-12.9942
▁supplie	-12.9942
▁ri	-12.9944
▁attraction	-12.9949
▁credi	-12.9951
▁showtime	-12.9956
dj	-12.9965
▁broker	-12.9967
▁tang	-12.9968
▁compact	-12.997
▁branding	-12.9975
▁gradual	-12.9976
▁hmmmm	-12.9981
▁celeb	-12.9981
▁sporadic	-12.9987
▁acoustic	-12.9987
▁astrologer	-12.9987
▁bazaart	-12.9987
▁dingtone	-12.9987
▁glorious	-12.9987
▁gralat	-12.9987
▁grief	-12.9987
▁hiatus	-12.9987
▁marriott	-12.9987
▁mercedes	-12.9987
▁quibble	-12.9987
▁subpar	-12.9987
▁tapatalk	-12.9987
▁tophatter	-12.9987
▁transmission	-12.9987
▁unwilling	-12.9987
▁vanquis	-12.9987
▁benchmark	-12.9987
▁iheartradio	-12.9987
▁stubborn	-12.9987
▁vanilla	-12.9987
▁resizing	-12.9987
▁vessel	-12.9987
▁irig	-12.9987
▁cheetah	-12.9987
▁discrete	-12.9987
▁aggregator	-12.9987
▁accuweather	-12.9987
▁melody	-12.9987
▁walkthrough	-12.9987
▁skout	-12.9987
▁undoubtedly	-12.9987
▁avakin	-12.9987
▁distribution	-12.9987
▁snowball	-12.9987
▁yardage	-12.9987
▁allotted	-12.9987
▁remodel	-12.9987
▁gangster	-12.9987
▁punishment	-12.9988
▁nexon	-12.9988
▁scottish	-12.9988
▁unsubscribing	-12.9988
▁occurrence	-12.9988
▁detective	-12.9988
▁paddy	-12.9988
▁srsly	-12.9988
▁invention	-12.9988
▁rewrite	-12.9988
▁quantities	-12.9988
▁latter	-12.9989
▁blackberry	-12.9989
▁oven	-12.9989
▁swamp	-12.9989
▁passive	-12.9989
▁inaccessible	-12.9989
▁vampire	-12.9989
▁expressvpn	-12.9989
▁phish	-12.9989
▁handsome	-12.999
▁funimate	-12.999
▁standby	-12.999
▁wrestler	-12.999
▁shopify	-12.999
▁varies	-12.999
▁neon	-12.9991
▁cfa	-12.9991
▁realising	-12.9991
ustle	-12.9991
▁fiddly	-12.9992
▁toaster	-12.9992
▁dvd	-12.9992
▁instrumental	-12.9992
▁viable	-12.9994
▁grease	-12.9994
▁goofy	-12.9994
▁shelves	-12.9994
▁fudge	-12.9995
▁warranty	-12.9995
▁danny	-12.9996
▁jeez	-12.9996
ttle	-12.9997
▁philly	-12.9998
▁inducing	-13
▁unlockable	-13.0001
▁consequences	-13.0001
▁eas	-13.0002
▁woot	-13.0002
▁masses	-13.0006
▁advis	-13.0008
▁replica	-13.0009
▁synonym	-13.0009
▁categorized	-13.001
▁miner	-13.0012
▁navy	-13.0013
etary	-13.0014
dbubble	-13.0019
▁horizontally	-13.002
▁vocal	-13.0021
▁typos	-13.0027
▁ohh	-13.0032
▁certificates	-13.0032
▁iffy	-13.0032
▁anonymously	-13.0033
▁technologie	-13.0035
▁fp	-13.0037
▁knees	-13.0037
quest	-13.0038
▁tweaked	-13.0039
▁cosmetics	-13.0041
▁joll	-13.0042
▁infest	-13.0043
▁employers	-13.0044
ular	-13.0049
▁streamers	-13.0049
▁procedures	-13.0054
▁looper	-13.0059
inary	-13.0062
▁cy	-13.0066
▁cheques	-13.0078
▁annually	-13.0079
▁polar	-13.0079
▁patched	-13.008
▁recipients	-13.008
▁alan	-13.0086
▁rins	-13.0088
▁roots	-13.0098
▁riot	-13.0099
▁che	-13.0103
can	-13.0107
▁buds	-13.0109
▁qualifie	-13.011
▁prioritize	-13.0118
▁billy	-13.012
▁slo	-13.0123
gi	-13.0125
▁rear	-13.0125
▁lazi	-13.0125
ome	-13.013
talk	-13.0131
▁formulas	-13.0131
▁juno	-13.0132
▁roman	-13.0132
▁kara	-13.0139
▁ken	-13.014
▁jen	-13.0142
activity	-13.0142
▁beam	-13.0148
▁crafts	-13.015
rl	-13.0151
▁lik	-13.0156
▁taker	-13.0157
yyyyyyyyyyyyyyyy	-13.0163
▁splits	-13.0165
▁announc	-13.0166
▁slices	-13.0167
▁aliens	-13.0168
▁onion	-13.0169
uv	-13.019
▁topping	-13.0192
wood	-13.0193
▁dp	-13.0212
▁relay	-13.0214
xis	-13.0215
▁agreeing	-13.0217
elda	-13.0218
▁coven	-13.0218
▁squads	-13.0222
▁terminate	-13.0229
▁distinct	-13.023
▁archiv	-13.0232
▁techs	-13.0232
▁alarmy	-13.0234
▁stub	-13.024
post	-13.0243
▁paw	-13.0244
▁consolidate	-13.0247
▁stoped	-13.025
▁anticipat	-13.0253
are	-13.0264
▁iheart	-13.0267
▁positioning	-13.0273
ite	-13.0276
eem	-13.0284
achel	-13.0293
▁amen	-13.0293
▁rework	-13.0296
ssssssssssssssss	-13.0302
ets	-13.0303
▁orbit	-13.0306
▁mmm	-13.0312
▁bea	-13.0318
print	-13.0322
▁allocate	-13.0323
▁clickers	-13.0326
ni	-13.0328
▁quot	-13.0329
eeeee	-13.0333
▁comical	-13.0333
▁sights	-13.0338
▁mont	-13.0339
▁crippl	-13.0339
wn	-13.0341
ats	-13.0342
▁believer	-13.0344
rose	-13.0356
su	-13.0356
hs	-13.0369
▁kk	-13.0376
▁cra	-13.038
▁bulls	-13.0392
▁nes	-13.0397
▁pg	-13.0403
▁distortion	-13.0409
▁reveiw	-13.0411
▁ko	-13.0411
fer	-13.0413
▁accommodation	-13.0415
▁threat	-13.0415
▁equation	-13.0416
arina	-13.0417
▁barrier	-13.0417
▁certificate	-13.0417
▁cutscene	-13.0417
▁shore	-13.0418
▁audi	-13.0419
▁mg	-13.043
▁volumes	-13.0432
▁golfer	-13.0433
match	-13.0434
▁var	-13.0438
mel	-13.0439
yo	-13.0447
▁fad	-13.0451
▁entice	-13.0451
▁incessant	-13.0451
▁assess	-13.0452
▁smiles	-13.0454
very	-13.0455
▁pond	-13.0456
skippable	-13.0457
▁frost	-13.0458
▁manga	-13.0459
adequate	-13.046
▁washer	-13.0462
▁csv	-13.0462
▁vietnam	-13.0463
▁apologies	-13.0463
▁discrepanc	-13.0463
▁exorbitant	-13.0463
▁gordon	-13.0463
▁ladbroke	-13.0463
▁logmein	-13.0463
▁nexomon	-13.0463
▁obscene	-13.0463
▁oxygen	-13.0463
▁phantom	-13.0463
▁vainglory	-13.0463
▁vinyl	-13.0463
▁yugioh	-13.0463
▁ecstatic	-13.0463
▁sermon	-13.0463
▁enticing	-13.0463
▁turkish	-13.0463
▁omission	-13.0463
▁sunshine	-13.0463
▁cruel	-13.0463
▁melodies	-13.0463
▁espresso	-13.0463
▁remarkably	-13.0463
▁temperamental	-13.0463
▁newsletter	-13.0463
▁warfare	-13.0463
▁conclude	-13.0463
▁calibration	-13.0463
▁religion	-13.0463
▁paranoid	-13.0464
▁ixl	-13.0464
▁dentist	-13.0464
▁illustrator	-13.0464
▁imaginable	-13.0464
▁mexica	-13.0464
▁honour	-13.0464
▁puffin	-13.0464
▁decipher	-13.0464
▁captcha	-13.0464
▁prefect	-13.0464
▁haptic	-13.0464
▁grammatical	-13.0464
▁pinball	-13.0464
▁nextdoor	-13.0464
▁thomas	-13.0464
▁pigeon	-13.0464
▁rectangle	-13.0464
▁slenderman	-13.0464
▁reinforcement	-13.0465
▁colorado	-13.0465
▁welder	-13.0465
▁jeep	-13.0465
▁unfollowers	-13.0465
▁mayhem	-13.0465
▁touchnote	-13.0466
▁dosnt	-13.0466
▁wannabe	-13.0467
▁nuances	-13.0467
▁sao	-13.0467
▁attendant	-13.0467
▁mynetdi	-13.0467
▁parallel	-13.0467
▁steroids	-13.0468
▁ew	-13.0468
▁fullscreen	-13.0468
▁snore	-13.0468
▁arbitrary	-13.0468
▁lucy	-13.0468
▁flex	-13.0468
▁accessory	-13.0468
▁registr	-13.0469
▁triller	-13.0469
▁envelope	-13.047
▁crunchy	-13.047
▁playground	-13.047
dash	-13.047
▁kelly	-13.0471
▁shakers	-13.0472
▁analog	-13.0472
▁emoticons	-13.0474
▁chanel	-13.0474
▁checkbook	-13.0474
▁interfaces	-13.0476
▁lore	-13.0477
▁preordered	-13.0478
wolf	-13.0478
▁buzzer	-13.0479
▁funnnnn	-13.048
ties	-13.048
▁vegetables	-13.048
▁deem	-13.0481
rn	-13.0482
▁png	-13.0483
▁randomness	-13.0484
▁ann	-13.0486
▁stepp	-13.0487
▁transformation	-13.0487
▁peek	-13.0488
guard	-13.0489
▁goof	-13.0489
▁lewis	-13.0492
▁erratic	-13.0492
▁timehop	-13.0494
▁collaborate	-13.0495
uf	-13.0496
▁fiddle	-13.0497
▁missile	-13.0499
▁prop	-13.05
▁tmobile	-13.05
▁wacky	-13.0506
ink	-13.0511
▁cvs	-13.0513
▁overlook	-13.0517
▁precisely	-13.0523
▁checkpoints	-13.0526
▁sai	-13.0526
easy	-13.053
▁skiing	-13.0535
▁mas	-13.0538
▁chunks	-13.0538
▁wod	-13.054
▁bail	-13.0543
▁opp	-13.0545
▁stacked	-13.0549
▁exclude	-13.055
▁robert	-13.056
▁gust	-13.0565
▁awaken	-13.0568
aw	-13.0577
▁pastor	-13.058
▁mastery	-13.0586
▁ideally	-13.0588
▁overlays	-13.0589
▁walkers	-13.0591
▁smoothie	-13.0595
nsecure	-13.0597
▁spreading	-13.0604
▁iphonex	-13.0612
nf	-13.0612
▁sins	-13.0612
▁loa	-13.0618
hhh	-13.0627
▁yh	-13.0628
▁committ	-13.063
▁shoots	-13.0631
▁shane	-13.0633
▁gimm	-13.0635
eal	-13.0649
azing	-13.0651
▁faxing	-13.0651
breaking	-13.0654
home	-13.0659
▁paywalls	-13.0668
▁swings	-13.0677
af	-13.0679
▁pas	-13.0684
▁rh	-13.0685
▁soooooooooooo	-13.0688
▁highlighter	-13.0692
▁securely	-13.0692
master	-13.0697
▁styl	-13.0698
▁hone	-13.07
▁blues	-13.0702
▁qc	-13.0711
ama	-13.0713
proving	-13.0714
▁chic	-13.0726
▁monitored	-13.074
▁investigat	-13.0746
racing	-13.0746
▁bru	-13.0753
finitely	-13.0755
▁sans	-13.0757
▁epi	-13.0759
ning	-13.0762
▁anticipate	-13.0765
chasing	-13.0779
▁sincere	-13.0781
▁inns	-13.0787
▁aww	-13.0804
▁developments	-13.0806
ese	-13.0807
▁grabb	-13.0813
▁editions	-13.0814
▁fk	-13.0821
▁airplanes	-13.0821
▁glue	-13.0834
▁mel	-13.0846
eb	-13.085
▁cine	-13.0852
dict	-13.0854
eeeeee	-13.0857
▁persist	-13.0864
▁torture	-13.0867
▁levi	-13.0869
works	-13.0877
▁booooo	-13.0878
this	-13.0893
▁timeframe	-13.0895
▁strategical	-13.0896
▁imports	-13.0896
▁boooo	-13.0898
▁cub	-13.09
▁violation	-13.0914
▁sweatcoin	-13.0914
▁economic	-13.0914
▁pistol	-13.0916
▁costume	-13.0916
▁lloyd	-13.0916
▁peanut	-13.0917
▁hairstyle	-13.0918
▁liar	-13.0919
▁matchup	-13.0926
drive	-13.0926
▁soothe	-13.0929
▁insure	-13.093
▁forfeit	-13.0932
guy	-13.0933
dc	-13.0933
around	-13.0934
▁bor	-13.0936
dies	-13.0937
▁embrace	-13.0937
▁zap	-13.0939
pass	-13.094
▁actor	-13.0941
▁pep	-13.0945
▁bliss	-13.0948
▁beard	-13.095
▁simplifie	-13.0955
beat	-13.0957
ew	-13.0957
copy	-13.0957
▁grain	-13.0959
▁masha	-13.0959
▁selective	-13.096
▁tomato	-13.0961
▁republic	-13.0961
▁adidas	-13.0963
▁bureau	-13.0963
▁democracy	-13.0963
▁disregard	-13.0963
▁elliptical	-13.0963
▁exquisite	-13.0963
▁literature	-13.0963
▁mesmeriz	-13.0963
▁nordstrom	-13.0963
▁pacybits	-13.0963
▁spinrilla	-13.0963
▁squirrel	-13.0963
▁unanswered	-13.0963
▁unsupported	-13.0963
▁elbow	-13.0963
▁erroneous	-13.0963
▁gumtree	-13.0963
▁miserably	-13.0963
▁utilities	-13.0963
▁believing	-13.0963
▁damaging	-13.0963
▁precipitation	-13.0963
▁telescope	-13.0963
▁tunnelbear	-13.0963
▁contribution	-13.0963
▁fongo	-13.0963
▁spoof	-13.0963
▁buzzfeed	-13.0963
▁hulk	-13.0963
▁jogging	-13.0963
▁landlord	-13.0963
▁parrot	-13.0963
▁miniclip	-13.0963
▁defective	-13.0963
▁scrapbook	-13.0963
▁agile	-13.0963
▁nationwide	-13.0963
▁siege	-13.0963
▁skyscanner	-13.0964
▁disorganized	-13.0964
▁voila	-13.0964
▁aviation	-13.0964
▁drastic	-13.0964
▁resistance	-13.0964
▁borderline	-13.0964
▁brokerage	-13.0964
▁mlg	-13.0964
▁nancy	-13.0964
▁variant	-13.0964
▁servant	-13.0964
▁uncover	-13.0964
▁anthony	-13.0964
▁courage	-13.0964
▁saavn	-13.0964
▁mishap	-13.0964
▁savage	-13.0964
mg	-13.0964
▁eternity	-13.0964
▁boomerang	-13.0964
▁chevrolet	-13.0964
▁mortal	-13.0964
▁transcribe	-13.0965
▁dominoes	-13.0965
▁adrien	-13.0965
▁composition	-13.0965
▁tension	-13.0965
▁crooked	-13.0965
▁gwent	-13.0965
▁tyler	-13.0965
▁laughter	-13.0966
▁lifelong	-13.0966
▁spiderman	-13.0966
▁trimming	-13.0966
▁weakness	-13.0966
▁webex	-13.0966
▁henry	-13.0966
▁personalities	-13.0966
▁brainpop	-13.0966
▁ovo	-13.0967
▁diego	-13.0967
▁fixture	-13.0967
▁assurance	-13.0968
▁allocation	-13.0968
▁emf	-13.0968
▁haircut	-13.0968
▁isolated	-13.0968
▁fog	-13.0969
▁ubereats	-13.0969
▁creed	-13.097
▁overwatch	-13.0971
▁technological	-13.0971
▁engrossing	-13.0971
iling	-13.0971
▁kindara	-13.0972
▁scoop	-13.0972
▁phil	-13.0972
▁funnnn	-13.0973
▁whiteboard	-13.0974
▁relive	-13.0974
▁saudi	-13.0975
▁jfk	-13.0977
▁yesss	-13.0978
rf	-13.0978
▁pear	-13.0978
▁brighter	-13.0978
▁snag	-13.0979
nstein	-13.0979
▁slayer	-13.0982
▁nutrients	-13.0982
▁punished	-13.0983
▁veggies	-13.0984
▁allstate	-13.0984
▁sheep	-13.0985
▁driveway	-13.0985
rmies	-13.0986
▁breakup	-13.0986
▁payroll	-13.0987
▁emotionally	-13.0989
▁bunker	-13.0989
run	-13.099
▁stutters	-13.0991
▁spear	-13.0992
▁morgan	-13.0994
▁ego	-13.0996
▁bina	-13.0996
▁nuggets	-13.1003
df	-13.1005
▁projection	-13.1009
▁lloyds	-13.101
▁equations	-13.1013
▁freestyle	-13.1014
▁spoons	-13.102
▁pasta	-13.1022
▁pups	-13.1023
▁jerks	-13.1025
▁verbs	-13.1025
▁boobs	-13.1026
▁inserted	-13.1026
▁refundable	-13.1029
▁robb	-13.1031
itanic	-13.1034
▁neighbours	-13.1035
▁tnx	-13.1035
▁risky	-13.1038
▁jess	-13.1039
▁meas	-13.104
▁memos	-13.1041
▁principles	-13.1042
▁horn	-13.1043
▁diagnosi	-13.1045
▁rot	-13.1045
vr	-13.1048
▁holders	-13.105
▁suppliers	-13.1052
jo	-13.106
▁swapp	-13.1062
▁chin	-13.1064
any	-13.1065
▁lions	-13.1067
▁grande	-13.1086
▁genie	-13.1086
▁touchy	-13.1094
ata	-13.1094
▁warming	-13.1095
▁cripple	-13.1096
hopping	-13.1102
▁featur	-13.1108
▁colleges	-13.1109
lr	-13.1111
▁communicated	-13.1114
▁lookin	-13.1114
▁noble	-13.1118
▁alll	-13.112
▁customis	-13.112
fin	-13.1122
▁liter	-13.1124
bt	-13.1131
▁smartphones	-13.1139
▁staple	-13.1141
▁des	-13.115
▁runway	-13.1151
▁defin	-13.1153
▁scribble	-13.1159
▁snip	-13.116
ington	-13.1164
▁magnet	-13.1167
▁dab	-13.1168
▁referrals	-13.1169
▁raider	-13.117
▁seating	-13.119
▁crab	-13.1194
her	-13.1195
▁blam	-13.1196
fire	-13.1197
▁coc	-13.12
▁breeds	-13.1203
▁str	-13.1205
rg	-13.1206
plex	-13.1208
▁essentials	-13.1211
▁hart	-13.1221
ye	-13.1227
▁onboard	-13.1227
▁ply	-13.1231
▁hexa	-13.1238
oc	-13.1242
▁daytime	-13.1243
▁fro	-13.1265
▁heh	-13.1266
▁thi	-13.1267
▁boosting	-13.1268
▁mia	-13.1269
▁careless	-13.1269
▁spreads	-13.127
rbi	-13.127
▁maple	-13.1273
▁pursue	-13.1276
fun	-13.1277
▁expedite	-13.1279
▁glich	-13.1281
▁builders	-13.1282
▁jaw	-13.1295
▁iris	-13.1297
▁doin	-13.1297
▁wool	-13.1298
vision	-13.13
▁castles	-13.1305
kk	-13.1312
fr	-13.1314
▁launcher	-13.1315
▁fri	-13.1324
▁idc	-13.1329
tory	-13.1336
▁fronts	-13.1342
▁dji	-13.1356
▁extract	-13.1364
▁loo	-13.1375
▁wal	-13.1379
ica	-13.1386
▁salesman	-13.1387
▁monument	-13.1397
form	-13.1405
▁simulate	-13.1407
▁males	-13.1407
▁kin	-13.1411
▁catfish	-13.1415
atic	-13.1416
▁shooters	-13.1417
▁rooster	-13.1429
▁burden	-13.1429
▁heap	-13.1429
service	-13.1431
ax	-13.1434
▁junior	-13.1435
▁instalment	-13.1435
▁landline	-13.1437
▁essay	-13.1441
▁diagnostic	-13.1441
▁raffle	-13.1442
▁vitamin	-13.1442
▁typo	-13.1443
▁idevice	-13.1443
▁arrangement	-13.1444
▁colleague	-13.1444
▁warship	-13.1444
▁potion	-13.1445
▁postcard	-13.1445
▁invent	-13.1447
appy	-13.1447
▁subtitle	-13.1448
▁mechanical	-13.1449
lar	-13.1451
▁intent	-13.1452
▁surfer	-13.1452
lix	-13.1456
gged	-13.1456
▁shovel	-13.1457
▁mug	-13.1459
▁pf	-13.1464
▁nooo	-13.1466
▁hind	-13.1466
ux	-13.1468
▁atmospher	-13.1472
mes	-13.1473
▁await	-13.1473
▁disarm	-13.1475
▁performances	-13.1478
▁discard	-13.1478
▁ironic	-13.148
▁argh	-13.148
▁ehhhh	-13.1483
▁crunch	-13.1483
catcher	-13.1483
safe	-13.1484
dust	-13.1487
▁drip	-13.1488
▁bella	-13.1489
▁enlight	-13.1489
▁clarification	-13.149
▁concierge	-13.149
▁deceive	-13.149
▁dissapointing	-13.149
▁downstairs	-13.149
▁evaluating	-13.149
▁exaggeration	-13.149
▁fgteev	-13.149
▁hipstamatic	-13.149
▁illogical	-13.149
▁jaguar	-13.149
▁ludicrous	-13.149
▁mundane	-13.149
▁puerto	-13.149
▁resolving	-13.149
▁selves	-13.149
▁simplisafe	-13.149
▁swedish	-13.149
▁threshold	-13.149
▁unfreeze	-13.149
▁wrestling	-13.149
▁argos	-13.149
▁brilliance	-13.149
▁crouch	-13.149
▁mazda	-13.149
▁opacity	-13.149
▁physician	-13.149
▁nimble	-13.149
▁cartwheel	-13.149
▁skyrim	-13.149
▁tolerable	-13.149
▁cryptic	-13.149
▁blockchain	-13.149
▁encryption	-13.149
▁tsuki	-13.149
▁bonkers	-13.149
▁buffalo	-13.149
▁interference	-13.149
▁monetization	-13.149
▁bounty	-13.149
▁phonto	-13.149
▁madrid	-13.149
▁injuries	-13.149
▁manchester	-13.149
▁stride	-13.149
▁thrive	-13.149
▁tinker	-13.149
▁pronto	-13.149
▁ulta	-13.149
▁confidential	-13.149
▁diaries	-13.149
▁deletion	-13.149
▁aeroplan	-13.149
▁swirl	-13.149
▁munchkin	-13.149
▁viva	-13.149
▁michelle	-13.149
▁telus	-13.149
▁rightmove	-13.149
▁metlink	-13.1491
▁reflexes	-13.1491
self	-13.1491
▁markdown	-13.1491
▁reimbursement	-13.1491
▁livestream	-13.1491
▁ownership	-13.1491
▁ethics	-13.1491
▁ovr	-13.1491
▁dummies	-13.1492
▁indefinitely	-13.1492
▁witty	-13.1492
▁trough	-13.1492
▁faff	-13.1493
▁fiverr	-13.1493
▁crayon	-13.1493
▁scoreboard	-13.1493
▁irresponsibl	-13.1494
▁penis	-13.1495
▁arrest	-13.1495
▁auxy	-13.1495
▁uhhh	-13.1495
▁pof	-13.1496
▁pd	-13.1497
▁abide	-13.1497
▁province	-13.1498
▁luke	-13.1499
▁cox	-13.15
▁wayyyyy	-13.1501
▁toolbox	-13.1502
▁strait	-13.1502
▁radical	-13.1502
▁waitlist	-13.1502
▁dividends	-13.1504
▁jacket	-13.1504
▁stuttering	-13.1504
▁comeback	-13.1505
▁overboard	-13.1505
▁stitcher	-13.1506
▁scapes	-13.1507
▁tubers	-13.1508
▁scholarships	-13.1509
▁overheating	-13.1509
▁doom	-13.151
▁joey	-13.1511
▁fairness	-13.1511
▁bryan	-13.1512
▁sadness	-13.1514
▁adequately	-13.1517
▁serial	-13.1517
▁cigarettes	-13.1519
▁audit	-13.1521
▁scorecard	-13.1522
au	-13.1524
max	-13.1526
▁ruler	-13.1526
▁bonne	-13.1527
▁gloves	-13.1529
▁cor	-13.153
▁expands	-13.1531
▁thai	-13.1531
▁gary	-13.1531
▁cramps	-13.1532
▁averages	-13.1535
▁sender	-13.1537
▁shawn	-13.1538
▁represented	-13.1542
▁stake	-13.1544
▁compat	-13.1545
lessly	-13.1547
▁greetings	-13.1547
▁funnn	-13.155
mind	-13.155
nation	-13.1552
▁merchants	-13.1555
ran	-13.1555
bg	-13.1558
anda	-13.156
▁looove	-13.1561
ula	-13.1562
▁gyms	-13.1563
plan	-13.1563
▁za	-13.1566
ja	-13.1574
▁tray	-13.1576
▁divin	-13.1586
▁monetize	-13.1592
▁pepper	-13.1597
ths	-13.1597
coins	-13.1602
▁noun	-13.1609
han	-13.1612
▁vic	-13.1615
▁hen	-13.1616
▁transmitt	-13.1624
▁rico	-13.1631
▁pipes	-13.1634
▁attain	-13.1639
▁grim	-13.1641
▁lmao	-13.1643
fe	-13.1646
▁container	-13.1653
▁decreases	-13.1654
bu	-13.1658
▁von	-13.166
▁chains	-13.1663
▁donkey	-13.1664
▁pete	-13.1671
ely	-13.1675
▁ahhhh	-13.1681
▁loosen	-13.1682
▁lemm	-13.1686
▁addicts	-13.1687
▁ovulat	-13.1695
▁brak	-13.1695
▁tapes	-13.1697
▁dun	-13.1698
ct	-13.1705
uge	-13.1709
▁cle	-13.1718
rp	-13.172
▁handicap	-13.1747
▁departments	-13.1753
tes	-13.1754
tttttttttttttttt	-13.1758
▁blessings	-13.1761
▁sli	-13.1767
▁scratching	-13.1768
▁deadly	-13.1774
▁mond	-13.1775
▁pia	-13.1803
▁shred	-13.181
▁curves	-13.1812
▁pronoun	-13.1824
▁sail	-13.1828
▁pea	-13.1831
ris	-13.1836
lf	-13.1839
ox	-13.1839
▁sped	-13.1848
▁replicate	-13.1851
▁reg	-13.1854
▁picker	-13.1857
ang	-13.1858
▁planting	-13.1858
etic	-13.1859
ide	-13.1862
▁riches	-13.1868
hz	-13.1876
▁rape	-13.1892
▁kw	-13.1892
get	-13.1892
▁gat	-13.1895
▁kj	-13.1912
ep	-13.1917
▁rio	-13.192
▁nb	-13.1936
touch	-13.1938
▁schl	-13.1939
▁relocate	-13.1947
desk	-13.1948
lier	-13.1953
▁herd	-13.1955
▁uid	-13.1956
ci	-13.1957
▁sinem	-13.1958
lia	-13.1963
▁bench	-13.1988
mmy	-13.1993
▁lesbian	-13.1994
▁rsvp	-13.1996
▁continent	-13.1997
▁mixtape	-13.1998
▁shrink	-13.1998
▁nud	-13.1999
▁balloon	-13.1999
▁grabber	-13.2
▁teammate	-13.2001
▁publication	-13.2002
▁squat	-13.2004
▁relation	-13.2004
▁installment	-13.2005
▁blackout	-13.2008
after	-13.2009
itty	-13.2012
▁mack	-13.2015
od	-13.2016
▁kno	-13.2018
active	-13.2019
▁rift	-13.2021
▁superstar	-13.2025
▁roast	-13.2025
▁farmer	-13.2026
▁fea	-13.2028
▁relat	-13.2032
▁defensive	-13.2032
▁evident	-13.2034
sssss	-13.2034
ea	-13.2035
▁tradition	-13.2036
▁playful	-13.2036
damn	-13.2038
normal	-13.2039
feud	-13.2039
assets	-13.2039
wallet	-13.2039
grid	-13.2039
▁freelance	-13.204
▁negotiate	-13.2043
▁mythic	-13.2044
▁organic	-13.2045
▁acquiring	-13.2045
▁alchem	-13.2045
▁anghami	-13.2045
▁barclaycard	-13.2045
▁circular	-13.2045
▁contributing	-13.2045
▁dantdm	-13.2045
▁disclaimer	-13.2045
▁district	-13.2045
▁elizabeth	-13.2045
▁exaggerating	-13.2045
▁exhibit	-13.2045
▁jeremy	-13.2045
▁mermaid	-13.2045
▁puppies	-13.2045
▁reenter	-13.2045
▁sunglasses	-13.2045
▁uncluttered	-13.2045
▁upstairs	-13.2045
▁deserving	-13.2045
▁ontario	-13.2045
▁voip	-13.2045
▁exponential	-13.2045
▁lantern	-13.2045
▁recreation	-13.2045
▁astrological	-13.2045
▁licence	-13.2045
▁dietbet	-13.2045
▁lawsuit	-13.2045
▁meltdown	-13.2045
▁puffles	-13.2045
▁demographic	-13.2045
▁questionnaire	-13.2045
▁woeful	-13.2045
▁tysm	-13.2045
▁craig	-13.2045
▁hooray	-13.2045
▁lynx	-13.2045
▁participant	-13.2045
▁ryanair	-13.2045
▁compulsive	-13.2045
▁nsfw	-13.2045
▁irritation	-13.2045
▁surgeries	-13.2045
▁unoriginal	-13.2045
▁persuade	-13.2045
▁liquid	-13.2045
▁undertale	-13.2045
▁disruptive	-13.2045
▁kardashian	-13.2045
▁kitties	-13.2045
▁cryptocurrency	-13.2045
▁memorization	-13.2045
▁passionate	-13.2045
▁dailies	-13.2045
▁diffrent	-13.2045
▁thrift	-13.2045
▁commerce	-13.2045
▁unlucky	-13.2045
▁discrimination	-13.2045
▁administrator	-13.2046
▁terrified	-13.2046
▁scarce	-13.2046
▁furnish	-13.2046
▁liberty	-13.2046
▁satisfactory	-13.2046
▁zeus	-13.2046
▁gentleman	-13.2046
▁election	-13.2046
▁reliant	-13.2046
▁gradient	-13.2046
▁dslr	-13.2046
▁augment	-13.2046
▁eternal	-13.2046
▁foster	-13.2046
▁popcap	-13.2046
▁nudge	-13.2046
▁valve	-13.2046
▁banter	-13.2047
▁sickening	-13.2047
▁audiobus	-13.2047
▁expedition	-13.2047
▁troublesome	-13.2047
▁daunting	-13.2047
▁vinted	-13.2047
▁academic	-13.2047
▁blackmail	-13.2047
▁framing	-13.2048
▁curry	-13.2048
▁acceptance	-13.2048
▁descent	-13.2048
▁enix	-13.2048
▁alignment	-13.2048
▁rebel	-13.2049
▁edf	-13.2049
▁pluck	-13.2049
▁bobby	-13.2049
▁directtv	-13.2049
▁publicity	-13.205
▁rite	-13.205
▁crock	-13.2051
▁mineral	-13.2051
▁hamster	-13.2052
▁clicklist	-13.2052
▁spontaneously	-13.2053
▁pokies	-13.2053
▁lauren	-13.2053
▁gpa	-13.2053
▁disclosed	-13.2054
▁sean	-13.2055
▁multiply	-13.2056
▁trivial	-13.2056
▁angeles	-13.2056
▁exhausting	-13.2057
▁litty	-13.2057
▁landmarks	-13.2057
▁merit	-13.2057
▁obtainable	-13.2058
▁easyjet	-13.2058
▁shard	-13.2058
▁sapphires	-13.206
▁monies	-13.206
rey	-13.2061
▁thier	-13.2063
▁winnable	-13.2063
▁creepers	-13.2063
▁autoplay	-13.2064
▁yawn	-13.2066
▁substantially	-13.2067
▁utilise	-13.2069
▁brazil	-13.2069
▁cody	-13.2069
▁vikings	-13.2071
▁awakening	-13.2072
▁gtd	-13.2073
▁classify	-13.2073
▁ounces	-13.2073
▁overweight	-13.2074
▁lounge	-13.2077
▁recap	-13.2081
▁donut	-13.2082
▁trolling	-13.2086
▁clowns	-13.2087
▁yess	-13.2088
▁minigames	-13.209
▁wages	-13.2091
nny	-13.2096
mbled	-13.2097
▁kissing	-13.21
▁barriers	-13.2101
▁nada	-13.2102
fc	-13.2105
▁dryer	-13.2105
▁privileges	-13.2106
▁candles	-13.2106
▁sued	-13.2107
▁racking	-13.2108
▁lifted	-13.2108
▁selectable	-13.2109
▁buzzing	-13.211
▁borrowed	-13.2118
▁agin	-13.2118
▁cravings	-13.2125
yyy	-13.2126
▁uv	-13.2127
▁puzzled	-13.2131
ab	-13.2132
▁wirelessly	-13.2133
▁migrate	-13.2134
morizing	-13.2135
hop	-13.2141
▁pacer	-13.2142
esque	-13.2144
▁rea	-13.2145
mb	-13.2146
▁ssn	-13.2146
▁fried	-13.2147
▁sofa	-13.2151
▁auctions	-13.2152
▁broadcasting	-13.2155
▁mot	-13.2156
kd	-13.2158
▁muslims	-13.216
▁heated	-13.2161
▁chas	-13.2162
▁collects	-13.2163
ou	-13.2165
▁wording	-13.2165
▁concerts	-13.2166
▁darken	-13.2166
▁comps	-13.2172
▁sho	-13.2176
▁negate	-13.2179
▁ports	-13.2187
▁burgers	-13.2187
▁empires	-13.219
▁whoops	-13.2193
oooo	-13.2204
▁informational	-13.2216
▁probe	-13.2222
▁hookups	-13.2226
▁deter	-13.223
cp	-13.2231
▁linu	-13.2231
▁inquire	-13.2235
▁sal	-13.2245
▁wires	-13.225
▁photobook	-13.2254
▁springs	-13.2257
▁specialize	-13.2258
▁fut	-13.2262
▁speedo	-13.2268
▁gow	-13.2273
pie	-13.2273
▁dosh	-13.2274
▁rockets	-13.2277
▁definet	-13.2281
lk	-13.2294
▁crud	-13.2296
▁attribute	-13.2298
▁defeating	-13.23
▁endorse	-13.2302
▁wand	-13.2307
graph	-13.2312
▁hb	-13.2321
ria	-13.2323
ifying	-13.2329
▁lest	-13.2332
kit	-13.2335
▁swaps	-13.2345
tting	-13.2349
▁treasures	-13.2352
▁batt	-13.2357
▁spr	-13.2366
▁mach	-13.2372
▁ji	-13.2376
▁ja	-13.2378
iana	-13.238
az	-13.2381
ota	-13.2393
▁presenter	-13.2393
▁grave	-13.2395
▁platformer	-13.24
▁refresher	-13.24
▁por	-13.2402
ens	-13.2403
▁tomb	-13.2405
▁kay	-13.2406
▁termin	-13.2409
▁dart	-13.2416
hu	-13.2421
▁observe	-13.2421
mazing	-13.2422
▁woooo	-13.2426
ram	-13.2427
▁bend	-13.2431
▁sofi	-13.2439
▁swa	-13.2443
▁wag	-13.2457
▁environments	-13.2457
▁rocking	-13.2461
chi	-13.2461
▁uwu	-13.2465
▁dk	-13.2481
▁eliminat	-13.2484
tube	-13.2485
news	-13.2487
▁exclud	-13.2503
ied	-13.2507
berg	-13.2509
wi	-13.251
▁sew	-13.251
▁immerse	-13.2513
▁dood	-13.2517
ski	-13.252
ans	-13.2521
▁yi	-13.2523
era	-13.2525
for	-13.2526
light	-13.2529
lls	-13.2544
fest	-13.2555
▁han	-13.2561
was	-13.2566
▁ec	-13.2571
▁grat	-13.2572
▁yer	-13.2575
▁admire	-13.2577
▁sector	-13.2583
▁storytell	-13.2583
▁uniform	-13.2584
▁wage	-13.2584
▁gooner	-13.2585
▁pancake	-13.2585
▁brag	-13.2586
▁nugget	-13.2587
▁snail	-13.2587
▁soldier	-13.2589
▁contraction	-13.2589
▁minigame	-13.2592
▁resident	-13.2595
▁orient	-13.2596
gur	-13.2597
base	-13.2597
▁ham	-13.2602
▁idol	-13.2603
power	-13.2604
eals	-13.2605
▁cramp	-13.2606
▁renter	-13.2606
▁pla	-13.2606
▁reall	-13.2611
els	-13.2612
▁progressions	-13.2612
▁restless	-13.2612
▁junky	-13.2613
ward	-13.2614
▁underline	-13.2615
▁psycho	-13.2618
▁compromise	-13.2625
caller	-13.2627
cl	-13.2627
little	-13.2631
▁xtra	-13.2632
▁profession	-13.2633
▁defect	-13.2633
▁convention	-13.2633
▁beverage	-13.2633
▁diabolical	-13.2633
▁disapointed	-13.2633
▁lincoln	-13.2633
▁odometer	-13.2633
▁oklahoma	-13.2633
▁panasonic	-13.2633
▁roebucks	-13.2633
▁sarcasm	-13.2633
▁strategize	-13.2633
▁thermometer	-13.2633
▁udemy	-13.2633
▁vancouver	-13.2633
▁zomato	-13.2633
▁artificial	-13.2633
▁asinine	-13.2633
▁dispensary	-13.2633
▁endurance	-13.2633
▁lomotif	-13.2633
▁vietnamese	-13.2633
▁adventurous	-13.2633
▁autotrader	-13.2633
▁democrat	-13.2633
▁alleged	-13.2633
▁humidity	-13.2633
▁readdle	-13.2633
▁revising	-13.2633
▁distress	-13.2633
▁esteem	-13.2633
▁robin	-13.2633
▁initiative	-13.2633
▁mushroom	-13.2633
▁camscanner	-13.2634
▁zaful	-13.2634
▁abnormal	-13.2634
▁ruzzle	-13.2634
▁tiresome	-13.2634
▁vrbo	-13.2634
▁khair	-13.2634
▁nazi	-13.2634
▁spray	-13.2634
▁olivia	-13.2634
▁wierd	-13.2634
▁cultural	-13.2634
▁mickey	-13.2634
▁shallow	-13.2634
▁juicy	-13.2634
▁katie	-13.2634
▁helmet	-13.2634
▁hottest	-13.2634
▁ballpark	-13.2634
▁chaotic	-13.2634
▁wordsearch	-13.2634
▁ummmmm	-13.2634
▁clipboard	-13.2634
▁astronomical	-13.2634
▁impc	-13.2634
▁uneven	-13.2635
▁amazeballs	-13.2635
▁ronaldo	-13.2635
▁mercy	-13.2635
▁liam	-13.2635
▁predetermined	-13.2635
▁illinois	-13.2635
▁loft	-13.2635
▁compilation	-13.2635
thing	-13.2635
beer	-13.2635
▁cleo	-13.2635
▁homeschool	-13.2635
▁flesh	-13.2636
▁insanity	-13.2636
▁cabinet	-13.2636
▁rookie	-13.2636
▁professionalism	-13.2636
▁diligent	-13.2636
▁gmc	-13.2637
▁mattress	-13.2637
▁rusty	-13.2637
▁wix	-13.2638
▁gardenscapes	-13.2638
▁cranky	-13.2638
▁wavy	-13.2638
▁potatoes	-13.2639
▁partnership	-13.2639
▁duped	-13.2639
▁shopped	-13.2639
▁pingit	-13.2639
▁harmony	-13.2639
▁sidewalk	-13.264
▁injure	-13.264
▁sirius	-13.264
▁bandai	-13.2641
▁imagery	-13.2641
▁yessss	-13.2642
▁buffet	-13.2643
▁bearable	-13.2643
▁mathematics	-13.2644
feed	-13.2645
▁declining	-13.2647
▁obd	-13.2648
▁collectibles	-13.2649
▁sickness	-13.2651
▁tempting	-13.2653
▁spel	-13.2653
▁amzing	-13.2653
▁threatened	-13.2655
▁cussing	-13.2655
rea	-13.2655
▁journalists	-13.2656
▁throttle	-13.2657
▁ringer	-13.2658
▁ariana	-13.2659
▁coal	-13.2659
▁wealthy	-13.266
▁plat	-13.2662
▁vox	-13.2662
▁raft	-13.2665
▁untapp	-13.2665
▁recruiting	-13.2668
▁itinerar	-13.2669
▁geniuses	-13.2669
▁yonder	-13.2669
sie	-13.2671
▁proximit	-13.2671
▁fry	-13.2672
▁mabe	-13.2675
▁suburbs	-13.2675
▁celebrat	-13.2675
▁symptom	-13.2676
▁puff	-13.268
▁stiff	-13.2681
tripped	-13.2682
▁motive	-13.2684
▁divert	-13.2684
▁scrib	-13.2685
▁beeping	-13.2688
ttt	-13.2688
▁dysfunction	-13.2689
▁gathered	-13.269
▁matchups	-13.269
▁boooooo	-13.2692
▁discussed	-13.2693
▁makeover	-13.2694
▁peacefully	-13.2696
▁gals	-13.2701
▁cuteness	-13.2703
▁stab	-13.2704
▁origins	-13.2706
▁logan	-13.2707
▁influencer	-13.2708
▁utilized	-13.2708
▁brewer	-13.2708
▁travellers	-13.2709
pping	-13.271
▁succeeded	-13.2712
▁winds	-13.2715
help	-13.2719
▁markers	-13.272
ire	-13.2723
▁drones	-13.2724
ising	-13.2726
▁vibrations	-13.273
▁muse	-13.2731
▁wade	-13.2733
▁strawberr	-13.2735
▁accomplishments	-13.2738
▁integra	-13.2744
▁nieces	-13.2753
▁spawned	-13.2753
▁tsums	-13.2761
▁modest	-13.2762
▁adopter	-13.2763
▁boating	-13.2773
▁sloth	-13.2777
▁fundamentals	-13.2779
▁riddles	-13.278
▁owes	-13.2784
lv	-13.2786
▁len	-13.2791
cb	-13.2792
▁plates	-13.2795
▁fractions	-13.2795
▁reign	-13.28
▁costumers	-13.2802
▁msgs	-13.2806
▁cloudy	-13.2811
▁blends	-13.2814
▁pods	-13.2815
ngest	-13.2815
pper	-13.2818
▁grounded	-13.2823
▁freezer	-13.2825
▁bl	-13.283
▁fullest	-13.2831
code	-13.284
▁dell	-13.284
cross	-13.2842
▁dota	-13.2847
▁surpass	-13.2852
▁mos	-13.2859
heart	-13.286
dog	-13.2866
eral	-13.2866
rv	-13.2869
▁queues	-13.2873
▁capitals	-13.288
▁org	-13.2903
▁pri	-13.2903
▁mj	-13.2906
moon	-13.2907
ator	-13.2913
but	-13.2921
▁gab	-13.2923
▁spirits	-13.2926
▁jumpy	-13.2933
epson	-13.2934
▁lessen	-13.2934
▁ml	-13.294
tome	-13.2943
sburg	-13.2944
▁bats	-13.2949
ading	-13.2949
▁helpers	-13.2961
▁productions	-13.2963
▁coordinat	-13.297
▁explod	-13.298
stock	-13.2982
▁bris	-13.2984
▁migrat	-13.2991
▁bitcoins	-13.2992
▁brit	-13.2999
▁tre	-13.2999
▁authenticat	-13.3004
ib	-13.3006
rh	-13.3008
▁dua	-13.3013
▁nite	-13.3014
▁pronunciations	-13.302
▁retriev	-13.3022
▁marie	-13.3031
db	-13.3036
▁canadians	-13.304
▁coffees	-13.3045
▁mirrors	-13.3047
miles	-13.305
cs	-13.3056
▁farms	-13.306
▁cleanse	-13.3061
iii	-13.3064
▁hoot	-13.3069
▁poi	-13.3071
tom	-13.3075
▁fakes	-13.3077
▁authorise	-13.3078
▁ooh	-13.3082
▁workable	-13.3093
bed	-13.3101
▁controllers	-13.3116
▁cobra	-13.3126
▁incorporat	-13.3129
cool	-13.3133
away	-13.3142
▁fascinat	-13.3142
▁factual	-13.3144
hem	-13.3146
▁nab	-13.3157
▁bae	-13.3158
▁jeopard	-13.3164
▁compile	-13.3165
con	-13.3165
▁torn	-13.3168
using	-13.3169
▁sl	-13.3172
▁aces	-13.3173
▁grrrr	-13.3178
cd	-13.3183
▁laptops	-13.3184
ij	-13.3184
▁ella	-13.3184
▁recognis	-13.3184
▁prof	-13.3186
▁perfecto	-13.3187
▁hug	-13.319
▁sacrifice	-13.32
iv	-13.3201
walk	-13.3203
▁chap	-13.3206
▁repayment	-13.3208
▁ritual	-13.3209
▁restful	-13.3209
▁sleeve	-13.3209
▁clown	-13.3211
▁steven	-13.3213
▁deduction	-13.3213
ldr	-13.3214
▁johns	-13.3217
▁hers	-13.3217
▁glove	-13.3219
▁reserv	-13.3224
▁vulnerab	-13.3231
▁scratcher	-13.3233
▁okc	-13.3234
▁techno	-13.3237
▁hawk	-13.3238
▁pimp	-13.3238
▁astound	-13.3241
▁disrespect	-13.3242
▁neglect	-13.3245
▁unplug	-13.3245
▁mut	-13.3245
ojo	-13.3246
▁instantaneous	-13.3247
▁stead	-13.3247
▁wrinkle	-13.3248
▁solitar	-13.3251
rocket	-13.3252
▁charter	-13.3252
▁regime	-13.3252
sphere	-13.3252
mentioned	-13.3252
▁nooooo	-13.3252
▁stump	-13.3252
charging	-13.3252
brain	-13.3252
radar	-13.3252
grill	-13.3253
▁kicker	-13.3253
▁philosoph	-13.3253
practical	-13.3255
lady	-13.3257
▁regen	-13.3257
cats	-13.3258
▁acquisition	-13.3258
▁adrenaline	-13.3258
▁autosleep	-13.3258
▁chalice	-13.3258
▁inception	-13.3258
▁jehovah	-13.3258
▁niantic	-13.3258
▁obtrusive	-13.3258
▁qantas	-13.3258
▁sarcastic	-13.3258
▁suspension	-13.3258
▁unhealthy	-13.3258
▁unintentional	-13.3258
▁universities	-13.3258
▁upvote	-13.3258
▁cannabis	-13.3258
▁courtesy	-13.3258
▁shambles	-13.3258
▁klepto	-13.3258
▁sleazy	-13.3258
▁scotiabank	-13.3258
▁stimulation	-13.3258
▁disclosure	-13.3258
▁carnival	-13.3258
▁repository	-13.3258
▁extortionate	-13.3258
▁logistics	-13.3258
▁mellow	-13.3258
▁disabilities	-13.3259
▁cherish	-13.3259
▁merch	-13.3259
▁unheard	-13.3259
▁opposition	-13.3259
▁apollo	-13.3259
▁momentarily	-13.3259
▁stunned	-13.3259
▁deadpool	-13.3259
▁funnier	-13.3259
▁qq	-13.3259
▁mutant	-13.3259
▁gorilla	-13.3259
▁cartoonish	-13.3259
▁copper	-13.3259
▁impulse	-13.3259
▁collar	-13.3259
▁babysitter	-13.326
▁warcraft	-13.326
▁bicycle	-13.326
▁kfc	-13.326
▁iceland	-13.326
▁phila	-13.326
▁sailor	-13.326
▁distant	-13.326
▁fido	-13.326
▁plzzz	-13.3261
▁venus	-13.3261
▁totes	-13.3261
▁hipster	-13.3261
▁resourceful	-13.3261
▁dandy	-13.3261
▁proactive	-13.3261
▁motel	-13.3261
▁jarring	-13.3261
▁alto	-13.3262
▁hijack	-13.3262
▁kpop	-13.3262
▁adaptation	-13.3262
▁replayability	-13.3262
▁mayo	-13.3262
▁lovable	-13.3262
sician	-13.3263
▁psychological	-13.3263
▁possess	-13.3263
▁peeve	-13.3263
▁pedophiles	-13.3264
▁ranger	-13.3264
▁hometown	-13.3266
▁headshot	-13.3266
▁domination	-13.3266
▁crude	-13.3266
▁slanted	-13.3267
▁remitly	-13.3267
▁www	-13.3267
▁chalk	-13.3268
▁airpods	-13.3269
▁skitch	-13.3269
▁sculpt	-13.3269
▁cynical	-13.327
▁hof	-13.3271
▁substitutions	-13.3272
▁woof	-13.3272
▁powerups	-13.3273
▁deficienc	-13.3273
eye	-13.3275
▁cancels	-13.3275
▁nik	-13.3275
▁cheerful	-13.3277
▁moji	-13.3277
▁complicate	-13.3279
data	-13.3279
▁doug	-13.3281
▁comma	-13.3281
▁freelancer	-13.3281
▁sneakerheads	-13.3281
▁cone	-13.3283
▁hu	-13.3283
▁tagged	-13.3286
▁dns	-13.3287
organized	-13.3288
▁metres	-13.3288
▁claus	-13.3289
▁reboots	-13.3289
urai	-13.329
▁noodle	-13.329
▁lever	-13.329
▁blanket	-13.329
nx	-13.3293
dr	-13.3294
▁punishing	-13.3296
▁leftover	-13.3296
▁puzz	-13.3297
▁clay	-13.3298
▁urgently	-13.3302
▁sin	-13.3302
▁implie	-13.3303
▁identifier	-13.3304
▁harassed	-13.3304
▁postings	-13.3307
▁donating	-13.3307
▁teamwork	-13.3308
▁whatnot	-13.331
▁mari	-13.3312
▁manger	-13.3313
▁dooms	-13.3315
▁arrangements	-13.3315
▁mud	-13.3316
▁komba	-13.3317
▁statistical	-13.3318
▁watchos	-13.3319
settling	-13.3319
▁classmate	-13.3322
▁blacks	-13.3324
▁logically	-13.3326
log	-13.3326
▁cramm	-13.3326
▁homeless	-13.333
row	-13.3331
▁navigated	-13.334
runk	-13.3341
▁rom	-13.3341
▁cuss	-13.3343
eddy	-13.3347
wo	-13.3354
▁buckets	-13.3354
▁farmers	-13.3355
▁reverted	-13.3357
▁malfunctions	-13.3358
▁affirm	-13.3358
▁euros	-13.3359
▁revolve	-13.3361
vity	-13.3362
▁willow	-13.3368
▁tel	-13.3379
▁casually	-13.3382
▁sweating	-13.3385
▁quietly	-13.3387
▁personable	-13.3387
▁tether	-13.3389
▁tack	-13.3392
asha	-13.3394
▁vans	-13.3394
▁donations	-13.3394
▁ticker	-13.3401
▁ascend	-13.3402
▁rocky	-13.3403
nj	-13.3404
▁adp	-13.3416
dk	-13.3416
▁brad	-13.3416
▁supermarkets	-13.3417
▁carrots	-13.3417
▁nic	-13.342
[...]
